<unk>	0
<s>	0
</s>	0
.	-2.94794
>	-4.06209
,	-4.26302
DOC	-4.45309
▁	-4.48349
▁<	-4.74063
▁"	-4.87526
లో	-5.05264
ం	-5.06464
T	-5.14186
NO	-5.14611
EXT	-5.14623
▁</	-5.15209
ని	-5.16526
లు	-5.22626
ను	-5.32082
కు	-5.35325
▁ఆ	-5.35866
గా	-5.36638
న	-5.40861
▁ఈ	-5.44421
ల	-5.4465
కి	-5.51605
ి	-5.52093
:	-5.52233
ు	-5.52278
ా	-5.56383
8	-5.57824
!	-5.6267
తో	-5.65555
u	-5.82127
</	-5.82807
tf	-5.83933
క	-5.84267
ే	-5.84539
స్	-5.85002
"	-5.89433
వ	-5.94777
?	-6.07127
▁లో	-6.07961
నే	-6.14205
ర్	-6.16585
...	-6.19685
మ	-6.20894
త	-6.22065
న్	-6.22922
ర	-6.2322
7	-6.26818
▁అ	-6.28802
?"	-6.28905
ారు	-6.29008
ల్	-6.32959
▁నా	-6.33574
6	-6.33805
్	-6.36469
▁కూడా	-6.36647
రు	-6.37135
▁తన	-6.41281
నా	-6.42431
లా	-6.42548
రా	-6.4308
ది	-6.43575
ాడు	-6.44711
ట	-6.45428
5	-6.46212
ము	-6.50127
▁ఆమె	-6.51215
పై	-6.52181
▁అని	-6.52605
ాన్ని	-6.57647
గ	-6.57704
▁ఓ	-6.58442
ింది	-6.58472
ంగా	-6.59526
క్	-6.59818
రి	-6.60254
ట్	-6.60366
▁కు	-6.619
▁నుంచి	-6.62181
-	-6.64986
డ	-6.652
వి	-6.66126
▁,	-6.69795
ానికి	-6.69821
▁ఒక	-6.70114
య	-6.72792
▁-	-6.74125
ిన	-6.74624
స	-6.74967
ాలు	-6.75784
▁అన్నాడు	-6.76141
▁ఆయన	-6.77166
ద	-6.77361
12	-6.78075
ప	-6.78098
▁క	-6.78853
."	-6.8002
▁మా	-6.8009
▁ఏ	-6.80212
నీ	-6.8025
▁స	-6.81494
!"	-6.81777
11	-6.82305
డు	-6.82894
లేదు	-6.82946
▁వి	-6.85309
▁నీ	-6.85511
▁(	-6.86259
▁ని	-6.87617
▁‘	-6.89784
డి	-6.89789
ో	-6.9052
▁*	-6.91224
10	-6.91336
2017	-6.925
మా	-6.92848
డం	-6.93321
....	-6.94139
టి	-6.94439
న్న	-6.94657
లను	-6.9576
▁గా	-6.96774
వా	-6.96853
ూ	-6.96935
▁నేను	-6.97061
2016	-6.98163
ంది	-6.9918
▁మీ	-7.00349
సి	-7.01527
డ్	-7.01585
వు	-7.0286
లి	-7.05779
▁ను	-7.06209
▁చేశారు	-7.0807
కా	-7.08898
ల్లో	-7.08971
2015	-7.09073
కే	-7.09408
ండి	-7.09652
’	-7.09728
లకు	-7.10121
యి	-7.10986
▁రా	-7.11034
మి	-7.11176
▁ఉన్న	-7.11402
▁అంది	-7.11645
పు	-7.12417
▁మ	-7.12581
▁కా	-7.13499
ుడు	-7.15531
▁రెండు	-7.15932
యా	-7.16945
ాయి	-7.1718
▁'	-7.17675
మ్	-7.19077
అ	-7.19409
▁ప	-7.19535
▁చాలా	-7.2032
▁ఇ	-7.21248
▁కోసం	-7.2353
▁రూ	-7.23705
)	-7.24123
▁వ	-7.2417
'	-7.24989
లే	-7.2503
▁అతని	-7.25059
హ	-7.25285
ప్	-7.25848
▁చేయ	-7.26424
▁:	-7.26526
చ	-7.27781
దు	-7.29806
▁కి	-7.30283
మ్మ	-7.30375
ీ	-7.30755
▁ఎ	-7.3151
ాను	-7.32141
తి	-7.32567
ాలని	-7.32715
రీ	-7.32755
మే	-7.32999
▁తో	-7.33724
▁అది	-7.33756
▁న	-7.34058
▁లేదు	-7.35798
▁అయితే	-7.35923
▁తెలిపారు	-7.36543
ులు	-7.36678
▁హైదరాబాద్	-7.37172
ాల	-7.37574
మీద	-7.37751
▁చెప్ప	-7.38086
▁మీద	-7.3966
మైన	-7.40071
య్య	-7.40225
▁మన	-7.40372
జ	-7.40846
దా	-7.40968
జ్	-7.41054
సు	-7.42236
▁త	-7.4247
▁నాకు	-7.43157
ాలి	-7.43178
▁పెద్ద	-7.4441
▁కానీ	-7.44649
త్	-7.45809
▁వుంది	-7.46085
▁బ	-7.46742
▁కాదు	-7.47248
▁చేసిన	-7.47469
▁తర్వాత	-7.48995
▁మరో	-7.49087
ంత	-7.49296
▁చేసి	-7.50353
▁ఉ	-7.5038
టం	-7.5079
▁ముందు	-7.51777
▁సినిమా	-7.52347
ంటే	-7.52854
టీ	-7.52909
కీ	-7.52969
గు	-7.55001
ించ	-7.56205
పి	-7.56495
ంలో	-7.5654
వే	-7.57683
▁మంత్రి	-7.57884
▁తమ	-7.58186
▁ఉంది	-7.5838
▁పని	-7.58478
▁ప్ర	-7.60048
సీ	-7.60222
▁ప్రభుత్వం	-7.60783
▁పై	-7.60941
మని	-7.62024
ట్లు	-7.62182
జి	-7.63175
ంద	-7.63528
డానికి	-7.63541
లతో	-7.63811
▁అంటూ	-7.63956
మీ	-7.65058
రో	-7.65978
▁తల	-7.67179
▁విషయం	-7.672
ేందుకు	-7.67465
00	-7.68059
లూ	-7.68428
జీ	-7.68483
▁జిల్లా	-7.6897
ఆ	-7.68998
తా	-7.69036
▁మంది	-7.69519
▁పడ	-7.69677
కో	-7.69856
శ	-7.70276
▁మధ్య	-7.70428
కుండా	-7.70484
▁ఎంత	-7.70864
▁చిన్న	-7.71066
▁హ	-7.71668
▁దగ్గర	-7.71726
▁చ	-7.71799
లోని	-7.71838
పో	-7.7201
▁వున్న	-7.72195
▁వచ్చి	-7.72459
▁ర	-7.72653
▁అంత	-7.72773
▁మే	-7.72967
▁చెందిన	-7.73117
టు	-7.7417
▁చెప్పారు	-7.74297
▁అతను	-7.74438
్లో	-7.74659
బ్	-7.74788
▁అలా	-7.74788
▁గురించి	-7.75132
▁ఏం	-7.75154
▁ఎలా	-7.75248
▁అన్నారు	-7.75317
బ	-7.75407
ఆంధ్రజ్యోతి	-7.75447
09	-7.75496
ుకుని	-7.75702
డీ	-7.75844
03	-7.76307
ఏ	-7.76375
▁కో	-7.76621
▁సి	-7.76905
▁మాత్రం	-7.78081
బా	-7.78248
వీ	-7.7828
ష	-7.784
▁స్	-7.78447
▁వచ్చే	-7.79012
సా	-7.7906
▁బా	-7.79065
▁చూసి	-7.79523
1	-7.79551
ట్టు	-7.79697
▁వాళ్ళ	-7.79899
▁గ	-7.80151
▁రాష్ట్ర	-7.80343
):	-7.80551
చి	-7.81085
▁సు	-7.81199
▁వా	-7.81225
▁ము	-7.81237
పోయింది	-7.81351
30	-7.81698
రే	-7.81722
▁ఇప్పుడు	-7.82188
▁పెట్ట	-7.82276
▁తప్ప	-7.82884
▁తను	-7.838
04	-7.84631
▁ఇది	-7.85387
▁మీరు	-7.85454
▁చేసింది	-7.85582
ణ	-7.85685
▁సం	-7.85722
▁కొ	-7.85785
ధ	-7.85857
▁ఐ	-7.85876
▁నువ్వు	-7.86049
▁మె	-7.86251
▁మాట	-7.86349
▁మంచి	-7.87279
▁ఫోన్	-7.87357
ష్	-7.88522
▁అదే	-7.88913
50	-7.89033
ఇ	-7.89145
▁ద	-7.8945
నూ	-7.89551
▁పార్టీ	-7.89626
▁అనే	-7.90286
▁ఒక్క	-7.90406
▁కొత్త	-7.90641
▁పోలీసులు	-7.90816
▁ల	-7.91449
▁ప్రతి	-7.91589
▁మాట్లాడ	-7.91649
.....	-7.91669
▁పి	-7.91744
▁శాఖ	-7.92158
▁వచ్చింది	-7.92486
ె	-7.92733
ళ్ళ	-7.92905
▁తెలంగాణ	-7.93177
పీ	-7.93248
ుల	-7.93706
గానే	-7.94273
▁పా	-7.94639
▁పో	-7.94691
నో	-7.95079
ఫ్	-7.95509
(	-7.95593
ండ	-7.95795
ారని	-7.95839
కూ	-7.96041
లీ	-7.96357
▁ఏదో	-7.96456
రం	-7.96618
దే	-7.96656
ద్	-7.96704
▁అమ్మ	-7.96794
డా	-7.9711
నుంచి	-7.97127
▁సీఎం	-7.9767
ై	-7.9774
గ్	-7.97825
40	-7.97851
రావు	-7.98019
దీ	-7.98231
▁ద్వారా	-7.98314
నని	-7.98429
య్	-7.98695
▁మూడు	-7.98711
▁సా	-7.98716
యూ	-7.99008
▁ఏర్పాటు	-7.99088
వ్	-7.99242
▁అన	-7.99295
▁అంటే	-7.99692
..."	-7.99721
▁జ	-7.99801
ౌ	-7.99883
20	-8.00013
తీ	-8.00035
06	-8.00068
▁వచ్చిన	-8.00259
ప్ప	-8.00494
07	-8.00767
▁వే	-8.01027
పా	-8.01498
▁తిరిగి	-8.01555
జా	-8.01727
▁ఆర్	-8.02062
▁ప్రేమ	-8.02475
▁వారి	-8.02641
▁బి	-8.02846
▁అక్కడ	-8.02999
▁జరిగిన	-8.03074
ుతూ	-8.0347
ఈ	-8.03783
▁కేంద్ర	-8.03798
▁కాని	-8.04144
క్ష	-8.04159
భ	-8.04228
▁అన్న	-8.04364
▁దీంతో	-8.04658
న్నా	-8.05168
▁వెళ్ళ	-8.05518
▁పాటు	-8.05638
యం	-8.05756
▁కోట్ల	-8.06031
తు	-8.06553
▁లా	-8.0669
▁ఎస్	-8.06844
ళ్ల	-8.06859
▁రి	-8.07007
ంచ	-8.07384
ంచి	-8.07431
ఎస్	-8.07432
▁ఉండ	-8.07472
మూ	-8.07563
▁చె	-8.07744
మో	-8.0799
క్క	-8.08277
▁నన్ను	-8.08321
▁వెళ్ళి	-8.08322
▁చేసే	-8.08499
▁రోజు	-8.08664
▁పేరు	-8.08994
ప్పుడు	-8.09057
▁పెళ్ళి	-8.09629
▁వెంటనే	-8.0991
▁వరకు	-8.10549
▁అంద	-8.1062
▁మి	-8.10778
08	-8.10916
▁గు	-8.11049
▁కొన్ని	-8.11565
▁కలిసి	-8.11679
02	-8.12331
గల	-8.1286
▁చేర	-8.12999
తే	-8.13054
▁రాత్రి	-8.13154
ుకో	-8.13864
బి	-8.14476
డంతో	-8.14565
▁రెడ్డి	-8.14583
▁విడుదల	-8.14736
ంతా	-8.14737
ుకుంది	-8.14754
ాలను	-8.14799
ించి	-8.14804
▁వ్యక్తి	-8.14848
9	-8.14953
ధి	-8.14985
▁ఇలా	-8.15575
▁మాట్లాడుతూ	-8.15619
▁వె	-8.15656
ుకున్న	-8.15914
వాడు	-8.16178
▁చూస్తూ	-8.16875
▁ప్రభుత్వ	-8.17021
▁కే	-8.17159
స్తూ	-8.17221
▁భార్య	-8.17467
ాం	-8.17678
▁ఇంత	-8.17687
3	-8.17706
▁వారు	-8.17857
ల్ని	-8.18281
ళ్ళు	-8.18384
▁వద్ద	-8.18442
13	-8.18706
▁అయినా	-8.18813
▁కారు	-8.18896
▁తా	-8.1898
యు	-8.19506
లోకి	-8.20255
▁వల్ల	-8.20516
ందా	-8.20634
▁పట్ట	-8.20703
...."	-8.20818
▁అన్ని	-8.21114
▁కేసు	-8.21117
▁ఇన్	-8.21142
▁చెయ్య	-8.21207
▁పూర్తి	-8.21237
ఐ	-8.21255
వర్	-8.21272
ందు	-8.21295
▁అతడు	-8.21516
▁మళ్ళీ	-8.22778
▁డి	-8.22812
యో	-8.22854
▁ఇక	-8.22885
▁ఇంటి	-8.23467
▁ఇంకా	-8.23485
▁బాగా	-8.23529
▁నీకు	-8.23618
05	-8.23624
▁వీ	-8.23723
▁శ	-8.24075
▁సంస్థ	-8.24272
▁జా	-8.24286
రె	-8.24328
19	-8.24634
▁అమ్మాయి	-8.24732
ించిన	-8.24746
ష్ట	-8.2475
ప్ర	-8.24883
పోయి	-8.24914
▁20	-8.24927
వ్వ	-8.25054
▁అధికారులు	-8.2515
23	-8.25152
▁శ్రీ	-8.25245
▁దాని	-8.25268
▁భ	-8.25319
▁ఇవ్వ	-8.254
ాల్లో	-8.25558
ంతో	-8.25568
▁2	-8.25692
టా	-8.25954
▁ఎక్కువ	-8.26052
కొ	-8.26095
▁మరి	-8.26152
ంటూ	-8.26391
4	-8.26812
నం	-8.26846
▁య	-8.27792
01	-8.28019
గి	-8.28493
▁తల్లి	-8.28627
▁చి	-8.28765
ట్ట	-8.28987
▁నెల	-8.29354
ళ	-8.29651
▁డాక్టర్	-8.2978
15	-8.29949
35	-8.30073
▁భారత	-8.3048
14	-8.30524
పడ	-8.30654
టర్	-8.30768
▁అడిగాడు	-8.30879
▁ఆడ	-8.31159
16	-8.31301
▁సమయంలో	-8.31316
రూ	-8.31445
▁అతడి	-8.31512
32	-8.31658
▁ఎందుకు	-8.31764
45	-8.31962
▁ఎం	-8.32015
▁డబ్బు	-8.32851
ుకుంటూ	-8.32863
▁అవకాశం	-8.32903
▁గో	-8.3298
సం	-8.33005
▁తరువాత	-8.33072
▁న్యూఢిల్లీ	-8.33171
▁తెలుసు	-8.33393
క్కు	-8.33486
▁ప్రత్యేక	-8.33673
▁సె	-8.33716
చే	-8.33726
టానికి	-8.33856
▁శాతం	-8.33999
▁జరిగింది	-8.34379
18	-8.34407
▁తండ్రి	-8.34421
ుకున్నాడు	-8.34457
▁ఇంట్లో	-8.34723
▁సందర్భంగా	-8.34873
డే	-8.3488
న్నారు	-8.34884
గో	-8.3497
42	-8.34973
▁కల	-8.35392
25	-8.35527
లోనే	-8.35555
ుకునే	-8.35579
▁అందుకే	-8.36093
▁కట్ట	-8.3626
▁చూడ	-8.36267
34	-8.3633
▁అలాగే	-8.36818
▁పెంచ	-8.36995
36	-8.37696
▁కాంగ్రెస్	-8.37713
▁ప్రస్తుతం	-8.37859
24	-8.38655
వో	-8.38676
ద్ద	-8.38679
▁భర్త	-8.38715
▁నిన్ను	-8.38852
33	-8.3886
▁సీ	-8.39061
▁మనసు	-8.39198
పోయాడు	-8.39314
44	-8.39458
కోసం	-8.39756
▁వై	-8.39881
ిత	-8.39913
▁అయి	-8.4001
47	-8.40031
29	-8.40081
మై	-8.40119
▁నాలుగు	-8.40306
▁పీ	-8.40354
▁3	-8.40567
ొ	-8.40616
37	-8.40633
▁బాధ	-8.40742
▁కాగా	-8.40809
▁లే	-8.41148
▁10	-8.41657
43	-8.41658
వచ్చు	-8.41679
ల్లా	-8.4186
ఆర్	-8.41886
▁టీ	-8.41912
▁పరి	-8.42146
17	-8.42486
ుకొని	-8.425
ంగ	-8.42532
22	-8.42537
▁కళ్ళు	-8.42698
31	-8.42719
త్త	-8.42796
▁లోని	-8.42837
పెట్ట	-8.42905
▁లక్షల	-8.4295
ుతోంది	-8.43058
కం	-8.43075
▁ప్రధాన	-8.43105
▁కథ	-8.43123
48	-8.43188
ైన	-8.43375
స్ట్	-8.43479
▁వేల	-8.4363
▁యి	-8.43648
▁ఎంతో	-8.43739
▁మాత్రమే	-8.43746
▁మనం	-8.44009
ట్ల	-8.4404
39	-8.44167
లాంటి	-8.44201
▁తెలియ	-8.44299
46	-8.44676
ఎ	-8.44781
49	-8.44811
▁కింద	-8.45004
లేని	-8.45101
90	-8.45172
▁వాళ్ళు	-8.45179
▁మో	-8.45411
▁గత	-8.4548
ములు	-8.45588
▁పె	-8.45786
21	-8.46037
▁చా	-8.463
చ్చ	-8.46367
26	-8.46397
▁చేయాలని	-8.46562
▁చేశాడు	-8.466
▁దా	-8.46609
వైపు	-8.46933
▁గుర్తు	-8.46955
ంగ్	-8.47085
▁పడి	-8.47168
▁బీ	-8.47342
ావు	-8.47402
ందని	-8.47458
▁తెలుగు	-8.47687
ిస్తూ	-8.47695
▁మొత్తం	-8.47751
▁అంతా	-8.47754
▁మనిషి	-8.48165
సే	-8.48361
▁’	-8.48446
▁లేకుండా	-8.48488
▁చేస్తున్న	-8.48634
ుతుంది	-8.48858
▁మహా	-8.48894
▁పది	-8.48947
▁4	-8.49113
మున	-8.49244
▁!	-8.49245
▁ఉంటుంది	-8.49286
▁చంద్రబాబు	-8.49428
▁అతనికి	-8.49706
▁తాను	-8.49741
▁కదా	-8.498
▁ఏడాది	-8.49807
▁పంప	-8.49818
▁కంపెనీ	-8.49849
▁వుండ	-8.49851
లలో	-8.50096
▁కేసీఆర్	-8.50167
ంటి	-8.50202
41	-8.5041
38	-8.50458
ించారు	-8.50527
▁చూశాడు	-8.50603
లపై	-8.50833
▁పద	-8.50938
ారా	-8.5105
▁చెప్పాడు	-8.51052
▁హా	-8.51095
దని	-8.51329
▁ఒ	-8.51436
▁పొ	-8.51646
▁నీవు	-8.52046
▁పిల్ల	-8.52093
▁మోదీ	-8.52527
ఖ	-8.52527
ండ్	-8.5257
▁అందులో	-8.52582
హా	-8.52643
ాన	-8.52655
కాదు	-8.52784
▁కొట్ట	-8.52804
▁అవ	-8.52955
▁అసలు	-8.53165
ిక	-8.53288
పోయిన	-8.53446
▁పరిస్థితి	-8.53628
▁పలు	-8.54045
▁మరింత	-8.54295
▁యా	-8.54488
న్నీ	-8.54499
పల్లి	-8.55009
లేక	-8.55083
బ్బ	-8.55088
్ని	-8.55224
బు	-8.55558
▁వేసి	-8.55692
▁తనకు	-8.557
ితే	-8.55808
ాయ	-8.55867
▁చూస	-8.55954
▁నవ్వ	-8.55996
ామని	-8.56101
స్తా	-8.56152
ందో	-8.56312
▁సమాచారం	-8.56681
▁రెండో	-8.57144
కర్	-8.57528
▁ఇదే	-8.57647
▁తి	-8.57732
వారు	-8.57748
బీ	-8.58088
ంట	-8.58092
ుతున్న	-8.58197
ిస్తున్న	-8.58233
▁పక్క	-8.58278
▁లేచి	-8.58608
▁ఆలోచన	-8.59082
▁వ్యక్తం	-8.59087
క్స్	-8.59334
▁దేవ	-8.59338
▁మృతి	-8.59583
గారు	-8.59968
▁ఎన్	-8.60062
▁వంటి	-8.60215
మంది	-8.60254
▁కె	-8.60285
▁చంప	-8.60373
▁ఇద్దరు	-8.60461
▁ఉందని	-8.60574
▁ముఖ్యమంత్రి	-8.6064
ున్న	-8.60768
ినట్లు	-8.60822
▁ముందుకు	-8.60919
▁దు	-8.60962
’’	-8.61016
▁ఉప	-8.61046
▁అంతే	-8.61418
▁ఏపీ	-8.61421
కె	-8.61462
▁పేర్కొన్నారు	-8.61606
▁భారత్	-8.61818
▁‘‘	-8.61936
▁ఇక్కడ	-8.61958
▁చూసింది	-8.62039
▁చే	-8.62044
▁బో	-8.62113
నేను	-8.62159
▁లేదని	-8.62176
▁దేశ	-8.62179
మన	-8.62321
ణి	-8.62509
▁సై	-8.62624
▁తగ్గ	-8.63037
▁జి	-8.63085
లేదని	-8.63125
▁శుక్రవారం	-8.63149
51	-8.63227
న్ని	-8.63319
▁దిగ	-8.63338
మె	-8.63389
▁కాస్త	-8.63401
ల్ల	-8.63565
▁ధర	-8.6368
▁రే	-8.63696
న్స్	-8.63873
ఎం	-8.63874
▁వెళ్ల	-8.63886
▁లు	-8.63887
▁మీకు	-8.63949
▁పాత్ర	-8.64049
ుడి	-8.64056
▁9	-8.64063
▁8	-8.64192
శా	-8.64242
కూడా	-8.64375
▁హీరో	-8.64621
▁రె	-8.64717
▁అప్పుడు	-8.64798
పడి	-8.64903
దో	-8.64905
e	-8.64912
ిస్తే	-8.6495
▁ఆర్థిక	-8.64966
▁కుమార్	-8.65112
▁రామ	-8.6537
మ్మా	-8.65399
▁ఉదయం	-8.65622
▁చంద్ర	-8.65795
▁చిత్ర	-8.65806
ంబ	-8.65978
ుగా	-8.66542
ాలకు	-8.66671
▁మండలం	-8.6674
▁చెప్పి	-8.66769
▁విజయ	-8.66828
షన్	-8.67219
▁అందరూ	-8.67292
స్తే	-8.67377
▁డిమాండ్	-8.67449
▁శివ	-8.67521
తం	-8.67531
ైనా	-8.67565
టే	-8.67974
పూర్	-8.67987
ండీ	-8.68026
▁అయిన	-8.68031
▁అడిగింది	-8.681
▁రాజ	-8.68128
ళ్లు	-8.68224
▁భారీ	-8.683
▁సోమవారం	-8.6838
▁ఇంటికి	-8.68587
▁ప్రశ్న	-8.68631
▁జరగ	-8.6871
▁బీజేపీ	-8.68735
స్తోంది	-8.6881
▁5	-8.68882
▁చేస్తూ	-8.6893
ుకోవడం	-8.68952
రణ	-8.69115
▁పు	-8.69123
▁6	-8.69252
స్తుంది	-8.69468
ధా	-8.69499
▁తొలి	-8.69656
▁విషయంలో	-8.69716
▁మొదటి	-8.69869
▁ఆందోళన	-8.69895
ును	-8.69982
▁ఆశ	-8.70074
52	-8.70188
తోపాటు	-8.70302
ల్స్	-8.70403
▁విన	-8.70403
ందుకు	-8.70668
ించింది	-8.70728
పతి	-8.70739
▁ది	-8.70821
▁మెంట్	-8.71049
▁డీ	-8.71177
ాడ	-8.71332
▁మాటలు	-8.71367
▁1	-8.71422
▁ఎమ్మెల్యే	-8.71456
▁ఒకటి	-8.71459
▁ఆఫ్	-8.71467
ాక	-8.7168
ుకున్నారు	-8.71694
య్యా	-8.717
▁సంగతి	-8.71707
ుకు	-8.71822
వాళ్ళ	-8.71834
ేసి	-8.71885
▁బుధవారం	-8.71897
27	-8.7204
స్తు	-8.72115
రాజు	-8.7213
▁చేయడం	-8.72341
▁వెళ్లి	-8.72379
జె	-8.72393
▁చెప్పు	-8.72508
▁అర్ధం	-8.72609
▁అవసరం	-8.72675
▁చేతిలో	-8.7273
▁నమ్మ	-8.72741
▁రోజుల	-8.73086
▁వైపు	-8.73209
▁నిద్ర	-8.73421
డో	-8.73447
▁తీసుకుని	-8.73491
▁19	-8.7358
▁బయట	-8.73671
యే	-8.73805
వల్ల	-8.73868
రెడ్డి	-8.74162
▁ఫ	-8.74202
▁ఎవరి	-8.74364
కల్	-8.7439
▁ఎక్కడ	-8.7441
▁లేక	-8.74416
▁మంగళవారం	-8.74515
▁చెప్పింది	-8.74669
▁చేస్తున్నారు	-8.74673
▁లేదా	-8.74705
▁గుండె	-8.74732
▁గురువారం	-8.7485
▁తప్పు	-8.74901
లె	-8.75054
▁బయటకు	-8.75132
▁అనంతరం	-8.75264
▁23:	-8.75286
▁ఇలాంటి	-8.75382
54	-8.754
▁ఆదివారం	-8.75407
వె	-8.75488
▁కోర	-8.75653
చు	-8.75726
55	-8.75857
▁శనివారం	-8.75896
▁వారికి	-8.75923
చ్చి	-8.76061
▁పొంద	-8.76096
▁వస్తున్న	-8.76116
▁గంటల	-8.76165
▁కోర్టు	-8.76174
56	-8.76261
59	-8.76282
స్త	-8.76387
▁మేరకు	-8.76608
▁చిత్రం	-8.76735
▁జీ	-8.76847
ాల్సిన	-8.76923
▁అతి	-8.7702
▁అలాంటి	-8.77091
పాటు	-8.77293
▁కనిపించ	-8.77575
పే	-8.77734
▁నేత	-8.77906
28	-8.78116
▁యూ	-8.78128
ుని	-8.78265
యినా	-8.7836
▁మై	-8.78572
▁జారీ	-8.7868
▁ఉండే	-8.78709
▁)	-8.79043
▁15	-8.79427
మును	-8.79566
▁సమస్య	-8.79804
▁ప్రధాని	-8.79836
▁సర్	-8.79907
▁ఆత్మహత్య	-8.79951
▁కొడుకు	-8.79994
ఓ	-8.80248
▁మార్చ	-8.80278
▁జయ	-8.80501
ాయని	-8.8056
▁లేని	-8.80628
58	-8.81024
▁ఆలోచించ	-8.81077
▁సో	-8.81077
▁ఏమీ	-8.81135
ట్టి	-8.81164
▁వార	-8.81183
▁జో	-8.8137
▁ఉన్నాయి	-8.81497
▁రోడ్డు	-8.81576
జన	-8.81577
▁సాధించ	-8.81603
▁చేస	-8.81658
బడి	-8.81673
▁నేపథ్యంలో	-8.81686
57	-8.81756
గారి	-8.81763
53	-8.81838
▁చర్యలు	-8.82088
▁12	-8.82103
టింగ్	-8.82124
▁కాబట్టి	-8.82191
▁మార్కెట్	-8.82215
లుగా	-8.82244
▁ఖ	-8.82378
స్తున్న	-8.82421
2	-8.82477
▁అధ్యక్షుడు	-8.82585
o	-8.82603
త్వం	-8.82668
ేది	-8.82829
ఏం	-8.82905
▁వుంటుంది	-8.82959
▁కమిటీ	-8.82992
ూరు	-8.83014
చేసి	-8.83048
▁బాబు	-8.83166
ికి	-8.83233
▁నేన	-8.83241
▁క్	-8.83557
▁ఇచ్చిన	-8.83645
▁దాన్ని	-8.83795
పోయే	-8.83825
▁పోటీ	-8.83869
▁అల	-8.83927
▁గొప్ప	-8.84057
వాళ్ళు	-8.84071
▁పెట్టి	-8.84387
తన	-8.8445
కపోతే	-8.84604
చ్	-8.84704
▁అగ్ని	-8.84828
▁తీసి	-8.84951
న్నాడు	-8.84959
▁దాదాపు	-8.85136
కర	-8.8523
▁వెనుక	-8.85314
▁ముఖం	-8.85365
▁మాజీ	-8.85486
షా	-8.85582
▁కృష్ణ	-8.85789
▁చేసుకో	-8.85813
▁నమోదు	-8.86309
బో	-8.86378
▁నిర్ణయం	-8.86395
▁నే	-8.86461
▁షా	-8.86576
▁పూర్తిగా	-8.86604
▁టీడీపీ	-8.86647
▁7	-8.86648
▁కోట్లు	-8.86667
▁జాతీయ	-8.86667
▁అభివృద్ధి	-8.86699
▁అవి	-8.86708
▁మహ	-8.86754
▁తాగ	-8.86778
వై	-8.86788
▁ప్రా	-8.86827
▁ఎలాంటి	-8.86943
కారం	-8.86945
▁హత్య	-8.87072
▁కార్యదర్శి	-8.87104
▁వీర	-8.8723
▁స్త్రీ	-8.87484
ఘ	-8.8781
త్ర	-8.87826
▁ష	-8.87855
▁ప్రకారం	-8.88273
▁వచ్చాడు	-8.88433
▁ప్రపంచ	-8.88442
ంజ	-8.88459
▁స్టార్	-8.8851
▁ట్ర	-8.88557
ఉ	-8.8858
▁అయింది	-8.88585
▁కేవలం	-8.88685
▁నిలబడి	-8.88714
▁కేంద్రం	-8.88921
▁పూ	-8.88999
),	-8.89231
▁ఉంటే	-8.89432
▁కార్	-8.8954
▁గ్రామ	-8.89562
▁పాప	-8.89751
▁సమ	-8.89792
రని	-8.89827
ంగు	-8.90005
▁వాడ	-8.90034
ించే	-8.90059
ినా	-8.9032
▁కారణం	-8.9036
షి	-8.90391
ేష్	-8.9047
పోయారు	-8.90505
▁ఎంపీ	-8.90622
▁ఇతర	-8.90836
▁చేస్తా	-8.90971
▁తెచ్చ	-8.9111
ినట్టు	-8.91397
▁భయం	-8.9143
యిన	-8.91514
▁ఉన్నారు	-8.9156
చె	-8.91633
నున్న	-8.91693
▁ఆమెను	-8.91787
▁అమెరికా	-8.91788
యింది	-8.91793
మాట	-8.92172
▁పాట	-8.92288
లై	-8.92317
▁సంబంధించిన	-8.92395
▁మార	-8.92483
జు	-8.92507
▁బు	-8.92527
శాఖ	-8.92623
▁అందించ	-8.92662
▁రూపాయల	-8.92767
▁జన	-8.92779
▁కొంత	-8.9287
▁తీవ్ర	-8.92871
▁మార్చి	-8.92992
▁ఇప్పటికే	-8.93151
త్తు	-8.9342
60	-8.93434
▁ఇం	-8.93494
▁వరకూ	-8.93547
్యం	-8.93631
▁ఎవరో	-8.93675
▁కూ	-8.93879
ృ	-8.93887
▁వాడి	-8.9389
▁డైరెక్టర్	-8.94031
▁జల	-8.94063
▁కళ్ళ	-8.94086
▁సాయంత్రం	-8.94121
▁రావు	-8.94254
▁టి	-8.94373
కార	-8.9443
▁వాటి	-8.94529
ముందు	-8.94542
▁పోలీస్	-8.94582
▁సింగ్	-8.94614
▁నె	-8.94621
▁కుటుంబ	-8.94696
▁పే	-8.94704
హి	-8.95034
ొచ్చు	-8.95195
▁దాడి	-8.95195
▁అన్నది	-8.95208
▁సంఘటన	-8.95279
ేసింది	-8.95312
▁భూ	-8.95421
ముల	-8.95488
▁పరీక్ష	-8.95501
▁రాష్ట్రంలో	-8.95689
▁గొంతు	-8.95702
▁స్టేషన్	-8.95783
▁తీర	-8.95791
ాల్సి	-8.95805
థ	-8.95806
▁ఆమెకు	-8.95878
▁తెలిపింది	-8.95886
▁ఎవరూ	-8.95902
▁ఉంచ	-8.95959
శ్	-8.96091
ఫ	-8.96119
సె	-8.96132
ుకోవాలి	-8.96199
▁శక్తి	-8.96387
▁పెళ్లి	-8.96677
▁11:	-8.96702
▁ప్రాజెక్టు	-8.96719
పె	-8.9679
▁కొందరు	-8.96805
చేయ	-8.96908
డూ	-8.96932
▁అన్నీ	-8.9701
సారి	-8.97061
110	-8.97254
లోనూ	-8.97274
▁ఉన్నా	-8.9742
▁ఇండియా	-8.97473
▁ఫిర్యాదు	-8.9776
▁నుండి	-8.97836
▁రాజకీయ	-8.97977
హ్	-8.9801
▁గాలి	-8.98147
▁కనబడ	-8.98223
పం	-8.9838
నాడు	-8.98489
ాడని	-8.98704
▁చేస్తే	-8.9871
▁గుంటూరు	-8.9871
▁మ్యాచ్	-8.98716
▁రంగ	-8.98932
▁స్వ	-8.98971
▁బస్సు	-8.99028
▁జె	-8.99145
▁అమలు	-8.99262
▁11	-8.99279
▁బ్యాంకు	-8.99397
నుంది	-8.99522
▁దానికి	-8.99736
్య	-8.9985
▁చేశా	-8.9998
▁శా	-8.9998
టో	-9.00058
/	-9.00274
ుతున్నారు	-9.00274
లోంచి	-9.00315
▁చూప	-9.00342
ాలంటే	-9.00352
ః	-9.00473
▁ఢిల్లీ	-9.00515
▁ఇందులో	-9.00535
పోతుంది	-9.00575
▁ఆనంద	-9.0065
డమే	-9.00698
▁తెలిసిందే	-9.00848
▁ఇటీవల	-9.00857
▁అర	-9.00955
70	-9.01035
▁మొ	-9.01097
▁ప్రజల	-9.0114
▁దీని	-9.01285
▁అను	-9.0132
▁బ్ర	-9.01337
▁రాజు	-9.01488
▁ఫా	-9.01666
▁తీసుకో	-9.01967
▁ఏమిటి	-9.02198
ంప	-9.02315
▁అతన్ని	-9.02386
▁చూపించ	-9.02424
120	-9.02428
▁రాయ	-9.02553
తూ	-9.02594
▁30	-9.02647
▁క్యా	-9.02701
▁విచారణ	-9.02708
104	-9.02884
▁ఊ	-9.02988
ఎన్	-9.03097
తోనే	-9.03162
ంపు	-9.03188
......	-9.03203
▁వెనక్కి	-9.03247
▁ఫి	-9.03288
పూ	-9.03321
a	-9.03351
బోతున్న	-9.03363
▁పోలీసు	-9.03378
గానీ	-9.03593
ంటా	-9.03742
▁ఏళ్ల	-9.03943
▁మాకు	-9.03982
▁జీవిత	-9.03998
స్టు	-9.04038
▁విధంగా	-9.04071
▁జగన్	-9.04109
ట్స్	-9.04115
▁చెయ్యి	-9.04142
▁సీత	-9.04167
▁వెనక	-9.04192
ంట్	-9.04251
వర	-9.04334
▁తక్కువ	-9.04396
▁పిల్లల	-9.04483
▁తీ	-9.04569
▁పాల	-9.0461
▁ఇద్దరూ	-9.04625
▁సరి	-9.04625
▁భాగంగా	-9.04673
రోజు	-9.04698
ళి	-9.04732
▁తలుపు	-9.0476
▁నీటి	-9.04778
▁డ	-9.04896
త్వ	-9.05073
▁ఐదు	-9.05097
▁వాటిని	-9.05381
ండు	-9.0555
▁స్థాయి	-9.05599
లం	-9.0569
▁ప్రజలు	-9.05724
▁కూర్చుని	-9.05977
▁లైన్	-9.06007
▁ఖర్చు	-9.0637
▁ఆట	-9.06446
▁వేస	-9.06479
కులు	-9.06586
▁కాకుండా	-9.06613
▁హైకోర్టు	-9.06621
▁పైకి	-9.06793
ేశాడు	-9.06835
▁గి	-9.07098
నున్నారు	-9.07104
▁రద్దు	-9.07198
▁మళ్లీ	-9.07211
▁ఎన్నో	-9.07285
ుకుంటే	-9.07286
స్తున్నారు	-9.07301
ిని	-9.07594
జే	-9.0766
▁వైద్య	-9.07674
▁కాల	-9.0774
_	-9.0777
▁నవ్వుతూ	-9.07808
▁ఎక్కువగా	-9.07842
▁స్పష్టం	-9.07881
▁ఎదురు	-9.08125
నె	-9.08171
▁తె	-9.08316
సూ	-9.08379
ేంద్ర	-9.08489
సర్	-9.08547
▁12:	-9.08549
▁సూర్య	-9.0856
102	-9.08574
ఫీ	-9.08675
గారూ	-9.08838
__	-9.08873
▁15:	-9.08916
గాని	-9.08931
▁సిబ్బంది	-9.08986
దాకా	-9.08991
గం	-9.09133
▁అభి	-9.09147
▁దెబ్బ	-9.09172
▁సరిగ్గా	-9.09222
▁క్రితం	-9.09256
▁అటు	-9.09304
▁అందుకు	-9.0934
▁చేతులు	-9.09621
▁ఎప్పుడూ	-9.09711
▁సోమ	-9.09749
▁జిల్లాలో	-9.09772
రై	-9.09824
▁పంచ	-9.09833
▁రో	-9.09923
▁విజయవాడ	-9.09939
▁భావ	-9.09949
▁భూమి	-9.09972
▁ఇంక	-9.09999
పోతూ	-9.10004
t	-9.10021
▁హై	-9.10023
▁ప్రముఖ	-9.10027
శి	-9.10195
▁కొద్ది	-9.10214
▁బాధ్యత	-9.10274
▁వారిని	-9.10533
▁పనులు	-9.10583
వని	-9.10629
▁పాల్గొన్నారు	-9.10721
మూర్తి	-9.10722
▁అందరి	-9.10738
▁పాత	-9.1085
స్తారు	-9.10989
ింగ్	-9.10995
వారి	-9.11005
ైంది	-9.11021
▁హీరోయిన్	-9.11025
కాల	-9.11046
వలెను	-9.11049
▁ఇష్టం	-9.11087
ించాడు	-9.11091
ణా	-9.11205
ల్లు	-9.11209
▁వుంటే	-9.11287
తను	-9.11357
▁సార్	-9.11499
▁గదిలో	-9.11514
▁ఆగి	-9.11575
భా	-9.11615
▁సర్వ	-9.11686
జన్	-9.11691
కాయ	-9.11771
▁ట	-9.11774
▁ఎయిర్	-9.11776
స్వామి	-9.11802
▁చికిత్స	-9.11825
▁జూన్	-9.1188
▁నిర్వహించారు	-9.12047
తె	-9.12048
▁బె	-9.12097
వరకు	-9.12253
▁వాడు	-9.12257
▁చేసుకున్న	-9.12272
▁ఎవరు	-9.12289
▁వున్నా	-9.12406
▁సాగ	-9.12492
▁చెప్పిన	-9.12502
▁ఎందుక	-9.12571
▁నాగ	-9.12698
▁గట్టిగా	-9.12749
▁దేశంలో	-9.12754
ుకుంటా	-9.12762
▁డె	-9.12801
చీ	-9.12882
▁వచ్చా	-9.12928
▁ప్రమాదం	-9.12943
▁అడుగు	-9.13029
▁ఘటన	-9.13095
▁ఒకే	-9.13108
▁16:	-9.1325
▁తు	-9.13298
▁తెర	-9.1334
▁పైగా	-9.13352
అవును	-9.134
▁సభ	-9.13532
ర్స్	-9.13586
▁నడు	-9.13745
▁ఆరు	-9.13752
జర్	-9.13756
▁శి	-9.13856
▁లీ	-9.13942
▁జరిగే	-9.13944
దూ	-9.13963
▁సుఖ	-9.1412
తనం	-9.14323
▁చేయించ	-9.14432
▁తనను	-9.146
▁మొహం	-9.14622
లర్	-9.14636
▁విషయాన్ని	-9.14852
పోయాయి	-9.14864
▁25	-9.1498
ుంది	-9.14984
▁10:	-9.15053
ందే	-9.15066
▁అక్కడి	-9.15087
▁దూరంగా	-9.15104
▁కల్పించ	-9.15139
▁ఆవిడ	-9.15302
మైంది	-9.15382
డుగు	-9.1539
కృష్ణ	-9.15442
▁బొ	-9.1561
కూడదు	-9.15777
ేమిటి	-9.15807
▁సమయం	-9.15847
▁లేకపోతే	-9.15944
▁పుట్ట	-9.15981
▁అస	-9.15998
▁17:	-9.16051
పాల	-9.16057
తుల	-9.16081
▁చర్చ	-9.1609
▁ఎల్	-9.16168
▁చదువు	-9.16176
ుతున్నాయి	-9.16192
▁లి	-9.1622
పెట్టి	-9.16337
▁సే	-9.16362
సర	-9.16512
▁వేయ	-9.16517
నువ్వు	-9.16572
▁మానవ	-9.16638
ెంట్	-9.16649
మీరు	-9.16749
▁వున్నాడు	-9.16749
▁విద్యా	-9.1684
▁కావాలి	-9.16854
▁14	-9.17009
▁జే	-9.17014
ధు	-9.17061
▁అప్పుడే	-9.17068
▁ఏప్రిల్	-9.1708
▁లాంటి	-9.17172
▁వాళ్ల	-9.17188
ర్చ	-9.17265
▁చుట్టూ	-9.17394
▁రోజుల్లో	-9.17401
▁చైర్మన్	-9.17422
▁క్షణం	-9.17446
ుకుంటున్న	-9.17451
▁ముఖ	-9.17469
130	-9.17477
▁కొంచెం	-9.17479
▁సాయం	-9.17526
ిందని	-9.17588
▁కీలక	-9.17669
ేలా	-9.178
▁అక్క	-9.17845
▁అధికారి	-9.17916
ఠ	-9.17976
▁ఇప్పటి	-9.17986
▁టై	-9.1808
ుము	-9.18083
▁ఎన్నికల	-9.18107
i	-9.18131
తులు	-9.18137
ొక	-9.18153
▁ముంబై	-9.18185
▁ప్రాణ	-9.18237
▁ఆప	-9.18253
ేశారు	-9.18311
▁పిచ్చి	-9.18498
▁ఆగస్టు	-9.18501
▁రైతు	-9.18531
▁రోజులు	-9.18614
▁తెలియదు	-9.18637
▁13	-9.1869
▁ముఖ్య	-9.18705
▁కోరారు	-9.1873
▁వంద	-9.18826
▁టీఆర్	-9.18896
▁కార్యక్రమంలో	-9.18928
▁ప్రయత్నించ	-9.18943
ఫి	-9.19143
▁మరోసారి	-9.19241
▁కొనసాగ	-9.19315
▁ఆటో	-9.19399
ంటారు	-9.19404
▁నిర్వహించ	-9.1941
▁సినిమాలో	-9.19449
▁బయటికి	-9.19471
ఎల్	-9.19484
పోతున్న	-9.1955
▁బావ	-9.19587
దర్	-9.19656
రియా	-9.19751
▁నగర్	-9.19772
▁మేము	-9.19779
ణం	-9.19948
▁లెక్క	-9.19964
▁కొండ	-9.19968
▁కన్న	-9.20006
▁విశ్వ	-9.20152
▁లోపల	-9.20181
▁ఉద్యోగం	-9.20187
లన్నీ	-9.20204
▁తాము	-9.20232
▁సంబంధించి	-9.20349
వంత	-9.20511
ండా	-9.20545
▁డా	-9.20548
▁దారి	-9.2057
నట్లు	-9.20641
▁జరుగుతున్న	-9.20718
▁వీడియో	-9.20776
దేశ	-9.20893
ొక్క	-9.20922
▁మరీ	-9.21051
ేయ	-9.21072
▁మనసులో	-9.21314
▁ఆగ	-9.21475
▁విష	-9.21716
▁సమాధానం	-9.2172
నింగ్	-9.21842
▁వున్నాయి	-9.21954
పించ	-9.21996
▁1.	-9.22015
▁రామ్	-9.22223
▁అనుమానం	-9.22317
▁స్వామి	-9.22324
▁బుక్	-9.22346
▁చూస్తున్న	-9.22398
▁గంట	-9.22538
▁18:	-9.22563
▁అమరావతి	-9.22741
▁భాగ	-9.22742
▁సమావేశంలో	-9.2282
▁దీనికి	-9.22822
ద్ధ	-9.22832
▁ఆరోపించారు	-9.22878
▁మూ	-9.22937
▁అంచనా	-9.22955
ాలతో	-9.22991
శ్రీ	-9.22996
▁తర	-9.2304
101	-9.23085
▁నాన్న	-9.23152
▁18	-9.23312
▁ఎన్ని	-9.2337
ులను	-9.23443
122	-9.23461
చా	-9.23472
వేల	-9.23502
▁మాట్లాడారు	-9.23522
▁చెంద	-9.2358
▁పోలీసుల	-9.23589
▁రు	-9.2359
యర్	-9.23745
▁చివరి	-9.23865
▁19:	-9.2387
▁వస్తే	-9.23966
▁ఏడు	-9.23978
▁దృష్టి	-9.24029
మెంట్	-9.2404
మరి	-9.24044
▁స్టా	-9.24101
డని	-9.24137
▁ఆరోగ్య	-9.2434
▁సూ	-9.24345
లకి	-9.2435
▁ఏమ	-9.24423
కన్నా	-9.24478
▁అడ్డ	-9.24513
▁దొంగ	-9.24577
▁పాక్	-9.24607
▁తెలిసి	-9.24705
▁చూస్తే	-9.24711
▁దగ్గరకు	-9.24802
యితే	-9.24807
▁ఎవర	-9.24841
▁బాల	-9.24844
▁తెలిసింది	-9.24864
▁వస్తా	-9.24911
▁రైల్వే	-9.24957
▁పట్టుకుని	-9.25004
▁సంఘం	-9.25181
కాలం	-9.25184
▁వివిధ	-9.25241
ప్పు	-9.25354
▁తీర్చ	-9.25366
వచ్చ	-9.25458
▁నేనే	-9.25675
▁16	-9.25689
▁తయారు	-9.25721
▁అనేక	-9.25768
▁వచ్చారు	-9.25823
▁నటించ	-9.25906
▁ప్రారంభ	-9.25953
ుడ	-9.26102
▁నిర్	-9.26142
రూప	-9.26172
ైతే	-9.26207
▁ఎక్స్	-9.26306
▁లె	-9.26381
▁నెమ్మదిగా	-9.26438
▁జీవితం	-9.26471
80	-9.26484
▁కీ	-9.26507
▁చైనా	-9.26558
▁అడగ	-9.26606
పొ	-9.26716
▁తాజాగా	-9.26837
▁నవ్వు	-9.26954
వాడ	-9.2702
▁చేసుకుని	-9.27062
▁రావ	-9.27085
▁పిల్లలు	-9.2711
99	-9.2712
▁రూమ్	-9.27192
▁మిగతా	-9.27236
▁వర	-9.27258
▁కలిపి	-9.27366
▁ఫై	-9.27446
రిక	-9.2746
▁కాపాడ	-9.27474
లక్ష్మి	-9.27489
ప్పటికీ	-9.27534
▁కలిగించ	-9.27542
▁లోపలికి	-9.27579
త్య	-9.27606
▁తీసుకున్న	-9.27665
▁నేతలు	-9.27703
▁ఫోటో	-9.27889
▁ఎర్ర	-9.28012
▁వంట	-9.28137
రుగు	-9.28142
▁ఇచ్చ	-9.28171
▁జూలై	-9.28287
▁బల	-9.28306
ప్పటి	-9.28321
▁24	-9.28361
వడం	-9.28386
▁అండ్	-9.28404
స్తున్నా	-9.28423
▁చేయాలి	-9.28447
కంగా	-9.28763
జ్ఞ	-9.28817
▁అర్థం	-9.28832
▁చూసిన	-9.28916
▁హామీ	-9.29023
▁విశాఖ	-9.2912
ిస్తున్నారు	-9.29133
▁13:	-9.29289
▁తిన	-9.29301
▁పేరుతో	-9.29309
▁నమ్మకం	-9.29319
▁ఉత్తర	-9.29352
▁మగ	-9.29356
ఎ్	-9.29391
▁ధర్మ	-9.29449
▁ప్రయత్నం	-9.29631
పిల్ల	-9.29671
ప్త	-9.29688
గే	-9.29691
▁తెల్ల	-9.29729
▁వీటి	-9.29733
బాబు	-9.29759
▁బ్రహ్మ	-9.29932
▁నిర్మాత	-9.29933
▁గతంలో	-9.29975
రికి	-9.30004
ానని	-9.30056
▁నచ్చ	-9.3007
▁చీ	-9.30159
▁చీర	-9.30182
▁బోర్డు	-9.30187
▁చెన్నై	-9.30189
సేపు	-9.30195
▁నీరు	-9.30236
▁జట్టు	-9.303
....."	-9.3052
▁స్థానిక	-9.30619
▁మీర	-9.3073
▁జవాబు	-9.30815
▁మూడో	-9.30875
▁చెల్లించ	-9.30921
▁ఉండి	-9.30928
▁వార్త	-9.31053
▁తెలుసా	-9.3107
▁లోకి	-9.31088
▁ఆశ్చర్య	-9.31196
దాని	-9.3121
▁ఎంపిక	-9.31283
▁రాజధాని	-9.31406
ాలన్న	-9.31429
▁కాఫీ	-9.31484
పర్	-9.31547
▁ఆడపిల్ల	-9.31572
▁కోపం	-9.31757
▁సౌ	-9.31812
▁మహిళ	-9.31835
▁జన్మ	-9.31836
▁మాటల	-9.31842
▁సెల్	-9.31844
▁అసెంబ్లీ	-9.31853
▁కోరిక	-9.31936
▁వ్యవసాయ	-9.31955
▁నిజం	-9.31962
▁విలువ	-9.31968
▁గుర్తించ	-9.31996
రవ	-9.321
▁నో	-9.32114
▁సరే	-9.32173
▁బే	-9.32205
▁భయ	-9.32237
డికి	-9.32463
▁పాఠశాల	-9.32551
చూ	-9.32575
న్నది	-9.32582
ంక	-9.32593
▁నిన్న	-9.32673
▁దర్యాప్తు	-9.32675
▁తెలీదు	-9.32683
▁ఎక్క	-9.32705
▁క్ర	-9.32741
ుకోవాలని	-9.32825
మంత	-9.32854
▁వివరాలు	-9.32878
ణీ	-9.32911
▁చాలు	-9.32958
▁బిడ్డ	-9.32959
▁పేర్కొంది	-9.33137
▁వివరించారు	-9.33258
▁14:	-9.33323
బోయే	-9.33327
▁నష్ట	-9.33403
క్షన్	-9.33408
▁అయిదు	-9.33412
▁సూచించారు	-9.3343
▁పంట	-9.33447
▁హి	-9.33469
ిస్తా	-9.33479
ండే	-9.33489
▁..	-9.33607
▁రేపు	-9.33621
▁ఊర	-9.33681
దేశం	-9.337
▁దూర	-9.33751
▁ఆధ్వర్యంలో	-9.33794
▁శిక్ష	-9.33822
కుమార్	-9.3383
▁వారం	-9.33888
ాడో	-9.33911
▁పక్కన	-9.3399
▁వెంకట	-9.34009
▁సంపాదించ	-9.34146
▁రాజా	-9.34159
దాన్ని	-9.34184
▁రూపాయలు	-9.342
▁జైలు	-9.34313
▁చుట్ట	-9.34441
జం	-9.34458
మయిన	-9.34467
▁మారి	-9.34525
ర్లు	-9.34587
▁కోల్	-9.34619
▁వెల్లడించారు	-9.34702
స్సు	-9.34775
▁కృష్ణా	-9.34795
▁నువ్వ	-9.35019
▁విజయ్	-9.35064
వున్న	-9.35094
▁గది	-9.35125
వాడి	-9.35155
▁జనం	-9.35208
▁దీనిపై	-9.35225
ద్ర	-9.35252
▁రాలేదు	-9.35299
ులకు	-9.35302
బడ	-9.3536
ాలో	-9.35374
▁స్నేహ	-9.35395
▁దూరం	-9.35436
▁మార్పు	-9.35471
▁ఇరు	-9.35481
▁వ్య	-9.35545
యన్	-9.35574
▁రై	-9.35579
▁ముందే	-9.35664
▁రికార్డు	-9.35665
▁సహా	-9.3568
111	-9.35696
▁చేసేందుకు	-9.35806
సో	-9.35837
గీ	-9.35872
▁నల్ల	-9.35878
ధ్య	-9.35932
▁రంగు	-9.36034
▁మర	-9.36046
క్రమ	-9.36149
▁పర	-9.36171
▁నారాయణ	-9.36356
ఛ	-9.36381
▁కాలం	-9.36428
భవ	-9.3656
ారెడ్డి	-9.36611
▁రక్షించ	-9.36699
నాకు	-9.367
▁జనవరి	-9.36716
ల్లి	-9.36725
▁దీప	-9.3676
కింగ్	-9.36819
ఫా	-9.36868
▁మార్	-9.36876
▁అర్ధ	-9.37034
▁నోట్ల	-9.37124
▁తీసుకు	-9.37219
ందన్నారు	-9.37228
▁గొ	-9.37279
▁రవి	-9.373
మంతా	-9.3732
▁విజయం	-9.37396
▁తెగ	-9.37443
▁17	-9.37481
▁పవన్	-9.37561
▁హరి	-9.37601
థి	-9.37632
ుతుందని	-9.37689
▁తెలుస	-9.37745
వరం	-9.37855
▁నర	-9.37856
▁పట్టు	-9.37896
ేసరికి	-9.37905
▁రావడం	-9.37921
గ్గ	-9.38003
వ్య	-9.38026
▁రీ	-9.3804
▁ప్రయత్న	-9.38066
త్తి	-9.38113
నుండి	-9.38216
▁కనీసం	-9.38266
సార్లు	-9.38279
▁పూజ	-9.38297
▁కన్నా	-9.38338
▁గె	-9.38362
ొచ్చ	-9.38364
▁నగర	-9.38414
▁గోడ	-9.38504
▁అధికార	-9.38533
పోతోంది	-9.38585
▁తగ్గి	-9.38591
హో	-9.38623
▁ఇల్లు	-9.38656
▁పడింది	-9.38745
▁వ్యాపార	-9.38754
కట్ట	-9.38786
వార	-9.38812
▁సుందర	-9.38828
▁కృషి	-9.38959
▁ముగ్గురు	-9.38974
▁రూప	-9.39037
▁సంబంధం	-9.39051
▁డే	-9.39137
వతి	-9.39155
▁చాలామంది	-9.39184
ద్దు	-9.3919
ర్య	-9.39192
▁లేద	-9.39279
▁కాదని	-9.39365
▁ఘ	-9.39389
▁21	-9.39407
▁వినిపించ	-9.39419
టూ	-9.39425
ాయ్	-9.39509
ుకునేందుకు	-9.39561
▁ప్రజా	-9.397
ంటు	-9.39704
▁బాలీవుడ్	-9.39723
ఢ	-9.39852
ార	-9.3994
దర	-9.39984
ంధ	-9.39985
టై	-9.40003
ించు	-9.40044
గిరి	-9.40061
▁హో	-9.40143
▁మందు	-9.40203
అది	-9.40204
▁ఆలయ	-9.40255
▁సినీ	-9.40269
మన్నారు	-9.40275
కాని	-9.40283
▁కంటే	-9.4031
▁గల	-9.40342
▁చేపట్ట	-9.40394
వల	-9.40403
ందీ	-9.40472
▁వేడుక	-9.40491
▁కావ	-9.40491
▁50	-9.40506
▁చదువ	-9.40541
▁22:	-9.40647
▁టేబుల్	-9.40662
▁డ్	-9.40781
▁నిర్మించ	-9.40795
ాడట	-9.40895
▁బాబూ	-9.40901
▁ఇంకో	-9.40977
▁అక్కడే	-9.41007
▁సిద్ద	-9.41131
▁చల్ల	-9.41146
▁పంపించ	-9.41173
పాటి	-9.4123
▁వెంట	-9.41252
ుకొన్న	-9.41256
▁తీవ్రంగా	-9.41346
▁అరెస్టు	-9.41352
వరకూ	-9.41504
▁పర్	-9.41634
▁సిటీ	-9.41731
చెప్ప	-9.41802
▁చేర్చ	-9.4184
▁గాంధీ	-9.41849
▁20:	-9.41858
▁వస్తుంది	-9.41862
ములను	-9.41961
నకు	-9.42036
▁యు	-9.42124
సాగింది	-9.42126
▁చోటు	-9.42134
▁అప్పటి	-9.42166
▁స్ట	-9.42192
▁దిగి	-9.42194
మొ	-9.42271
బర్	-9.42283
▁2.	-9.42333
బె	-9.42367
▁ఇచ్చారు	-9.42406
▁బ్యా	-9.42425
▁చేస్తున్నా	-9.42454
▁రాధ	-9.42528
▁టా	-9.42537
▁కేసులో	-9.42546
▁ఆన్	-9.42764
గ్గు	-9.42793
రంగ	-9.42842
▁యువ	-9.42877
▁త్వరలో	-9.42883
▁పెరిగి	-9.42897
▁వు	-9.42926
▁పత్రిక	-9.43057
స్థాన	-9.43121
▁ఆంధ్రప్రదేశ్	-9.43164
▁ఉంటా	-9.432
▁స్ప	-9.43273
▁వైసీపీ	-9.43306
పద	-9.4331
▁తెలిసిన	-9.43405
▁దీన్ని	-9.4348
▁అప్పటికే	-9.43486
▁అవార్డు	-9.43512
ేషన్	-9.43644
య్యారు	-9.4367
కంటే	-9.43696
▁గ్రహించ	-9.43706
▁మూల	-9.43725
▁సమావేశం	-9.43779
▁సీనియర్	-9.43812
ందట	-9.43813
▁వ్యా	-9.43898
▁ఒకరు	-9.43909
నంత	-9.43927
..!	-9.4399
▁చేత	-9.44119
రంగా	-9.44224
ావ్	-9.44274
▁అంట	-9.44298
▁అనుమతి	-9.443
▁ప్రియ	-9.44304
▁హోటల్	-9.44328
▁పాడ	-9.44349
▁చీఫ్	-9.44407
న్నర	-9.44529
ెయ్య	-9.44717
ంగి	-9.44756
▁యీ	-9.44798
▁రాహుల్	-9.44831
కుల	-9.4498
కొండ	-9.45074
▁లక్ష	-9.45082
▁వ్యవస్థ	-9.45093
▁ప్రపంచంలో	-9.45102
▁మద్దతు	-9.45111
▁మీడియా	-9.45203
ారట	-9.45231
▁ప్లే	-9.45234
ొద్దు	-9.45242
▁గంటలకు	-9.45258
▁సుమారు	-9.4531
▁ఇద్దరి	-9.45357
▁పన్ను	-9.45444
▁తేదీ	-9.45462
▁గానీ	-9.45465
కల	-9.45503
▁సభ్యులు	-9.45547
▁తనని	-9.45596
▁కారణంగా	-9.45683
▁చెప్పే	-9.45697
▁ఛ	-9.4586
▁అరెస్ట్	-9.45868
ీయ	-9.45969
▁వయసు	-9.45973
▁చేయి	-9.46
▁కాలేజీ	-9.46019
జీవ	-9.46066
▁ప్రమాద	-9.46089
▁కోట	-9.46146
▁క్రింద	-9.46169
▁చట్ట	-9.46188
▁అంగ	-9.46248
▁కం	-9.46267
▁కలెక్టర్	-9.46357
స్థ	-9.46371
▁జీవితంలో	-9.46373
▁ప్రాంతంలో	-9.46435
▁ఎదురుగా	-9.46468
త్రి	-9.46502
▁ధైర్యం	-9.46503
▁లేవ	-9.4654
▁ప్రకటన	-9.46577
▁రైతుల	-9.46595
▁వీరి	-9.46648
▁మాన	-9.46678
▁విద్యార్థులు	-9.46688
గ్రా	-9.46712
వం	-9.46772
గాడు	-9.46814
మాన్	-9.46822
గంటల	-9.46851
▁చైతన్య	-9.46872
▁కమిషనర్	-9.46878
కెళ్ళి	-9.4693
▁అయ్య	-9.46954
▁సత్య	-9.46977
▁జిల్లాలోని	-9.47043
▁దాంతో	-9.47081
▁ప్రకటించ	-9.471
▁తెలుస్తోంది	-9.47118
▁ప్రారంభించ	-9.4715
ాలనే	-9.47154
ెందుకు	-9.47295
ెం	-9.47314
నప్పుడు	-9.4733
▁లేఖ	-9.47393
ిస్తారు	-9.47407
▁వుండి	-9.47444
▁వేగంగా	-9.47448
▁దర్శకుడు	-9.47458
▁విద్య	-9.47539
▁కూతురు	-9.47561
▁ఫె	-9.47611
▁మెడ	-9.47625
పడింది	-9.47662
మాన	-9.47675
ెత్తి	-9.47683
▁డిసెంబరు	-9.47786
లేద	-9.47809
▁వరంగల్	-9.47834
▁28	-9.47939
పేట	-9.47994
మ్ము	-9.48018
రియ	-9.48028
▁రక్త	-9.48088
▁ఫ్ల	-9.4812
చర్	-9.48133
గ్గా	-9.48148
▁సంక్షేమ	-9.48194
దంతా	-9.48249
▁విద్యుత్	-9.48284
▁మొదల	-9.48288
ట్టుగా	-9.48384
ుకున్నా	-9.48459
▁వెళ	-9.4852
ావా	-9.48588
▁బై	-9.48625
▁తొలగించ	-9.48663
▁చేతుల	-9.4869
▁చరిత్ర	-9.48702
▁జై	-9.48795
▁చెబుతున్న	-9.48834
▁రమణ	-9.4885
ణు	-9.48852
క్త	-9.48891
▁దగ్గరికి	-9.48939
కండి	-9.48976
▁ప్రచారం	-9.48976
ఒక	-9.48979
▁అంతర్జాతీయ	-9.49041
▁ఆశ్చర్యంగా	-9.49048
య్యే	-9.49148
▁దీక్ష	-9.49164
▁నవంబరు	-9.4926
తల	-9.49296
▁కూర్చు	-9.49456
▁కను	-9.49512
నివ్వ	-9.49522
వేసి	-9.496
▁స్పెక్టర్	-9.49749
▁అప	-9.49823
▁వీళ్ళ	-9.49885
▁పోలీసులకు	-9.49888
ింపు	-9.49891
▁మిగిలిన	-9.49937
▁ఆనందం	-9.49944
▁తీరు	-9.49945
▁షూటింగ్	-9.49969
▁పరుగులు	-9.50028
ేమో	-9.50093
▁వున్నారు	-9.50105
▁ఇబ్బంది	-9.5014
ర్ల	-9.50264
ేళ్ళ	-9.50284
▁చేయడానికి	-9.503
ురాలు	-9.5035
▁ఆసక్తి	-9.50367
▁నిర్మాణ	-9.50373
ంపై	-9.50413
ేడు	-9.50471
▁పగ	-9.50563
హిత	-9.50572
▁ప్రేక్షకుల	-9.50608
తలు	-9.50663
▁చిక్క	-9.50702
అయితే	-9.50772
ఊ	-9.50822
ణ్	-9.50826
▁ఇచ్చి	-9.50837
కుడు	-9.5086
ాలూ	-9.50897
▁ముద్దు	-9.50917
▁27	-9.50937
▁ఊహించ	-9.50966
▁ఎదుర	-9.50989
▁విధానం	-9.51018
పోతే	-9.5104
య్యాడు	-9.51051
▁మధు	-9.51055
బడ్డ	-9.51097
▁తిరగ	-9.51146
సింగ్	-9.51221
▁ఉంటుందని	-9.5127
▁కౌ	-9.51386
▁ఒకసారి	-9.5139
మర్	-9.51398
▁__	-9.51418
▁తిప్ప	-9.51448
▁అన్నాను	-9.51473
▁జాగ్రత్త	-9.51567
▁ఎత్తు	-9.51621
▁చూపు	-9.51664
▁ప్రేమించ	-9.51666
వ్వు	-9.51686
▁అందరికీ	-9.51734
▁కొనుగోలు	-9.51874
ఏమిటి	-9.51901
▁ఇప్పుడ	-9.51921
▁బయలుదేర	-9.51941
సన్	-9.51971
▁దరఖాస్తు	-9.52
తారు	-9.52094
▁ఇంద్ర	-9.52097
▁నివేదిక	-9.5215
▁హోదా	-9.52154
▁ఎన్నికల్లో	-9.52199
▁రైతులు	-9.52237
▁తొ	-9.52244
▁జీవ	-9.52246
బుల్	-9.52265
▁వెళ్ళిపోయాడు	-9.52296
ుకోవడానికి	-9.52367
▁మిమ్మల్ని	-9.52411
▁ఆత్మ	-9.52429
చ్చే	-9.52467
ున్నారు	-9.52472
▁సమీక్ష	-9.52476
నన్న	-9.52487
ుకొ	-9.52511
▁ధన	-9.52595
వాస	-9.52615
్యు	-9.52638
కొచ్చి	-9.52667
పట్ట	-9.52699
స్తున్నాడు	-9.527
హం	-9.52706
▁మధ్యాహ్నం	-9.52714
▁తీయ	-9.52883
▁ఛా	-9.52895
▁రాజ్	-9.52932
▁భావించ	-9.52979
▁మహిళల	-9.53025
వేపు	-9.53079
▁కప్పు	-9.53215
▁తనకి	-9.53245
న్స	-9.53276
▁సైతం	-9.53305
▁మహిళా	-9.53452
▁నెలల	-9.53457
▁రైలు	-9.53508
ించడం	-9.53512
▁వేద	-9.5352
▁కావాల	-9.53621
▁హెచ్	-9.53631
▁కలిగి	-9.53632
▁శరీరం	-9.53711
▁పరిచయం	-9.53762
పోయా	-9.53892
▁వదిలి	-9.5397
మధ్య	-9.53986
నీయ	-9.54019
▁అనిపించింది	-9.54041
▁ప్రాంతాల్లో	-9.54099
▁ఫిబ్రవరి	-9.54124
మైనా	-9.54236
▁అత్యంత	-9.54278
▁ఉపయోగించ	-9.54419
న్నమాట	-9.54429
▁గమనించ	-9.54549
ంటుంది	-9.54568
▁రక్షణ	-9.54577
▁అడ్డు	-9.54642
▁అక్టోబరు	-9.54688
▁ప్రకటించారు	-9.54718
▁వేదిక	-9.54847
▁పోయింది	-9.54866
▁లభించ	-9.54919
ెంత	-9.54948
▁ఫొటో	-9.54971
▁లోక	-9.55008
▁వుండే	-9.55013
▁గవర్నర్	-9.55103
▁అప్	-9.55238
▁ఫర్	-9.55293
▁నీళ్ళు	-9.55309
నగర్	-9.55334
▁అల్ల	-9.55341
▁ఆయా	-9.55341
▁సూపర్	-9.55345
▁తిరుమల	-9.5537
ప్పుడే	-9.55475
▁అనుకున్న	-9.55477
నైనా	-9.55531
▁కూర్చున్న	-9.55628
చ్చు	-9.55643
ేశ్	-9.55692
79	-9.55717
▁కష్టం	-9.55759
కపోయినా	-9.55814
హార	-9.55875
శు	-9.55889
దన	-9.56129
నట్టు	-9.56159
స్ట	-9.5617
లింగ్	-9.56194
లక	-9.56198
▁ఎన్టీఆర్	-9.56216
యాల	-9.56252
▁గొడవ	-9.56274
▁వెలుగు	-9.56282
69	-9.56347
▁ఆమెకి	-9.56395
▁నిమిషాల	-9.56396
▁చీకటి	-9.56399
▁కావడం	-9.56496
స్తాను	-9.56519
▁బిల్లు	-9.56543
▁దాటి	-9.56629
▁యజమాని	-9.56652
▁ఉంటాయి	-9.56663
▁నవ్వాడు	-9.567
▁మధ్యలో	-9.56702
▁సిద్ధ	-9.56711
లేదా	-9.56751
▁సేవ	-9.56753
▁విద్యార్థుల	-9.56764
96	-9.56768
గొట్ట	-9.56781
చేశారు	-9.56823
▁క్రి	-9.56875
ాల్సిందే	-9.56989
▁26	-9.57046
▁రక్తం	-9.57075
▁నోరు	-9.57077
63	-9.5711
▁ఉన్నాడు	-9.57168
▁శర్మ	-9.57207
▁క్రికెట్	-9.57244
▁మాయ	-9.57304
▁ఒకరి	-9.57313
▁నిలిచి	-9.57599
▁స్థాయిలో	-9.57709
▁కేటాయించ	-9.57723
▁కన్	-9.57756
కృత	-9.57794
▁నటి	-9.57812
▁29	-9.57968
▁తగ్గించ	-9.5804
▁చెప్పండి	-9.58053
హైదరాబాద్	-9.58111
▁విన్న	-9.58121
▁మూవీ	-9.58148
▁శత్రువు	-9.58233
ారావు	-9.58238
▁త్రి	-9.58272
▁వుంచ	-9.58295
▁ముందుగా	-9.58297
▁పేపర్	-9.58346
▁నూనె	-9.58372
▁చేస్తారు	-9.58394
▁ఆఫీసు	-9.58397
మ్స్	-9.584
▁తేజ	-9.58562
▁22	-9.58564
▁బొమ్మ	-9.58575
డర్	-9.58677
▁కొద్దిగా	-9.58834
గ్రహ	-9.58858
కేం	-9.58892
▁కాం	-9.58921
ీకరణ	-9.59
▁ఒప్ప	-9.59073
▁పథకం	-9.59102
▁భాష	-9.59117
▁స్వాధీనం	-9.59236
వచ్చని	-9.59237
▁చూ	-9.59266
హెచ్	-9.59329
▁కూర్చో	-9.59331
▁లక్షలు	-9.59338
▁చేతి	-9.59374
వలసిన	-9.59383
▁మంచిది	-9.59392
స్తున్నాయి	-9.59443
కేసి	-9.59459
▁చదివ	-9.59509
రించ	-9.59578
రామ	-9.59598
▁బయటపడ	-9.59708
▁లాభం	-9.59757
టె	-9.59767
రాజ్	-9.59782
▁అనుకో	-9.59791
▁ప్రభావం	-9.59818
▁శిక్షణ	-9.599
ిలా	-9.59918
▁కొట్టి	-9.59934
ెలా	-9.59954
▁నిర్ణయించ	-9.60012
▁దాట	-9.60106
ుతున్నా	-9.60117
లాగా	-9.60259
కైనా	-9.60278
ున్నా	-9.60295
▁అలవాటు	-9.60318
▁శ్రీనివాస్	-9.6032
91	-9.60345
98	-9.60355
ర్తి	-9.6039
▁3.	-9.60394
▁నిర్వహిస్తున్న	-9.60404
▁మంద	-9.6044
▁ట్	-9.6046
▁చేసుకున్నారు	-9.60479
▁అతన	-9.60486
కదా	-9.60488
▁తరలించారు	-9.60694
▁ఉద్యోగుల	-9.60748
▁అవుతుంది	-9.60763
గలిగ	-9.60794
పని	-9.60802
▁నన్న	-9.60836
▁లేవు	-9.60883
▁మొదలుపెట్ట	-9.60919
▁దేశాల	-9.60924
▁ఇచ్చే	-9.60932
▁కదల	-9.60969
▁న్యాయ	-9.60997
జూ	-9.61048
▁నేర	-9.6105
▁జరిగి	-9.61153
▁జూ	-9.61331
▁...	-9.61336
▁రోజూ	-9.61341
▁కాలంలో	-9.61419
▁అనిపించ	-9.61586
▁పనుల	-9.61609
ుతుంటే	-9.61667
ుకుంటున్నారు	-9.61755
సై	-9.61796
పోతా	-9.61833
▁తెచ్చి	-9.61838
కారు	-9.61953
ేం	-9.62008
ారో	-9.6202
▁పాల్గొన	-9.62025
ప్పి	-9.62042
!!	-9.62051
▁కల్	-9.62079
▁బరువు	-9.62124
▁సంవత్సరాల	-9.62186
▁భోజనం	-9.62244
▁సంవత్సరం	-9.62246
▁కాలేదు	-9.62246
▁తదితర	-9.62286
▁సభ్యుల	-9.62384
▁పాకిస్థాన్	-9.62406
ెన్స్	-9.62435
టరీ	-9.62481
▁సృష్టించ	-9.62484
89	-9.62531
తర	-9.62691
▁....	-9.62708
▁నిర్మాణం	-9.62717
▁పరిశోధన	-9.62796
▁నిజంగా	-9.62849
▁వుంటా	-9.62881
ఘా	-9.62901
▁నువ్వే	-9.6295
ఎఫ్	-9.62979
95	-9.63033
ూర్	-9.63158
▁పార	-9.63188
ర్థ	-9.63201
▁సోషల్	-9.63271
టిక్	-9.63288
▁ఖాతా	-9.6329
▁మరోవైపు	-9.63366
▁కుక్క	-9.63454
▁చేస్తోంది	-9.63459
లేను	-9.6347
పడ్డాడు	-9.63522
▁తెలంగాణలో	-9.636
▁గాయ	-9.6366
తార	-9.63743
రాం	-9.63794
▁బెడ్	-9.6381
▁బృందం	-9.63833
93	-9.6397
▁వాస్తవ	-9.64087
▁నిర్వహించిన	-9.64113
▁సెప్టెంబరు	-9.64115
▁గృహ	-9.64144
▁అతడికి	-9.64162
▁బడ్జెట్	-9.64171
▁కర	-9.64229
▁చూశా	-9.64229
▁గీత	-9.64289
▁తిరుపతి	-9.6429
కెళ్ళ	-9.64372
పరి	-9.64384
ిద్దరూ	-9.64424
ందరూ	-9.64429
తున్న	-9.6443
▁ప్రవేశ	-9.64442
▁మల్ల	-9.64485
▁పద్మ	-9.64488
▁ప్యా	-9.64585
మంటే	-9.64634
▁ఒక్కసారిగా	-9.64645
▁నవ్వింది	-9.64687
▁అన్	-9.64725
0	-9.64728
▁ప్రొ	-9.64729
▁దాచ	-9.64759
నర్	-9.64865
▁ధ	-9.64865
▁మిత్ర	-9.64885
▁కార్డు	-9.64957
▁వ్యతిరేక	-9.64986
1080	-9.65006
▁ఇరవై	-9.65052
తృ	-9.65122
ాన్	-9.65127
ామన్నారు	-9.65131
▁బీసీ	-9.65144
దం	-9.65163
రాలు	-9.65249
▁డ్రైవర్	-9.65251
▁వేసింది	-9.65396
▁కొత్తగా	-9.65417
▁రకాల	-9.65456
▁అనుభవ	-9.6548
రస	-9.65489
▁విని	-9.65492
డ్స్	-9.65543
▁సంఖ్య	-9.65554
▁పలువురు	-9.65566
▁తమిళనాడు	-9.65607
▁పడుతున్న	-9.65652
▁ప్రశ్నించారు	-9.65693
▁అన్నా	-9.65698
▁వరద	-9.65716
1280	-9.6581
▁దక్క	-9.6585
▁పరా	-9.65867
▁నేనూ	-9.6591
▁పొడి	-9.65975
నంద	-9.65979
▁మండల	-9.65991
ట్టే	-9.65998
▁ప్రారంభించారు	-9.66024
ుతా	-9.66059
▁బ్యాంక్	-9.66091
▁పదవి	-9.661
▁శారద	-9.6621
పోవడం	-9.6623
▁యువత	-9.66256
▁వివరాల	-9.66294
▁ముఖ్యంగా	-9.66307
ార్ధ	-9.66315
▁బిజినెస్	-9.66342
ాది	-9.66378
▁విధించ	-9.66392
▁పట్ల	-9.66437
▁చేస్తామని	-9.66464
▁డ్రా	-9.66471
న్నాయి	-9.66492
▁క్ష	-9.66501
మణి	-9.66522
▁పొగ	-9.66524
▁ప్రాణం	-9.66593
ండర్	-9.66595
వలసి	-9.66605
చంద్ర	-9.66624
సరే	-9.66627
▁పర్యటన	-9.6666
▁త్వరగా	-9.66776
▁తమిళ	-9.66846
▁సలహా	-9.66888
లాగే	-9.66898
ధన	-9.66904
▁పేర	-9.6692
▁పం	-9.66989
▁తమకు	-9.67022
▁అదీ	-9.67139
▁ఆదిత్య	-9.67202
▁కాల్	-9.67272
▁గుర	-9.67299
▁నిజమే	-9.67325
లేరు	-9.6735
డె	-9.67354
▁వేడి	-9.67362
▁చెబుతున్నారు	-9.6741
▁బాలిక	-9.67431
▁ఈసారి	-9.67448
▁తదితరులు	-9.67456
ర్డ్	-9.67476
▁నిరసన	-9.67534
▁అబ్బాయి	-9.67542
▁ప్రజలకు	-9.67548
▁చర్చించ	-9.67594
పురం	-9.67651
▁బంధ	-9.67671
▁విమర్శించారు	-9.67732
చేత	-9.67797
▁అక్రమ	-9.67821
71	-9.67852
▁షాక్	-9.67858
▁వేరు	-9.67904
చిన	-9.67927
బడిన	-9.67935
వంతు	-9.67935
హీ	-9.67992
ర్చి	-9.68131
61	-9.68243
▁వేపు	-9.68244
▁టె	-9.68367
ుకోవచ్చు	-9.68406
ప్రా	-9.68409
క్షణ	-9.68427
ింప	-9.68442
▁ప్రకటించింది	-9.68473
▁రాస	-9.68486
ఫల	-9.68488
అంటే	-9.68496
నున్నట్లు	-9.68534
▁విడి	-9.68538
▁నలుగురు	-9.68549
ర్ణ	-9.68554
-"	-9.68576
నాటి	-9.68702
73	-9.68805
అదే	-9.68805
భ్య	-9.68825
97	-9.68921
షన	-9.68976
మగు	-9.6905
ంట్లో	-9.69179
మన్	-9.69228
▁పార్	-9.69244
▁యువతి	-9.69323
▁ప్రాణాలు	-9.69411
▁స్థానంలో	-9.69474
▁పూర్	-9.69479
▁పెళ్ళ	-9.69508
▁దొరక	-9.69532
▁భయపడ	-9.69541
▁చెప్పడం	-9.69571
ుకోవటం	-9.69579
▁ఎప్పుడు	-9.69649
వులు	-9.69693
▁ప్లాన్	-9.69739
▁మరొక	-9.69753
▁బాగు	-9.69777
▁నవ	-9.69784
ఎవర	-9.69854
రిగి	-9.69932
▁21:	-9.6995
▁ఒక్కో	-9.69966
మం	-9.69979
▁కామ	-9.70312
▁పక్ష	-9.70382
▁భేటీ	-9.7041
▁సముద్ర	-9.70424
సార్	-9.70436
▁పట్టించుకో	-9.70445
▁ప్రక్క	-9.70489
▁ఎండ	-9.7061
ంచు	-9.70671
▁రాక	-9.70716
▁వంక	-9.70736
ిస్తోంది	-9.70744
▁బెంగళూరు	-9.70771
శీ	-9.70821
▁మోహన్	-9.70849
ప్రసాద్	-9.70886
ందరి	-9.70927
టంతో	-9.70933
హు	-9.70938
▁ప్రారంభం	-9.70962
పార్	-9.70968
▁అప్ప	-9.70982
▁సర్వే	-9.70992
క్ట్	-9.71011
▁మార్గ	-9.71012
▁అద	-9.71083
▁సిగ్గు	-9.71089
▁ప్రస్తుత	-9.71261
ాప	-9.71287
ాడా	-9.71303
▁విధ	-9.71392
▁ప్రసాద్	-9.71426
స్య	-9.71571
ట్టూ	-9.71576
▁అమ్మా	-9.716
▁షో	-9.71649
▁మనోహర్	-9.71682
▁వూ	-9.71761
▁రచయిత	-9.71774
▁అవినీతి	-9.71803
ారన్నారు	-9.71861
ార్థ	-9.71861
▁గదిలోకి	-9.71914
▁ఇస్తా	-9.71916
▁తెలియని	-9.71991
రేట్	-9.72051
భద్ర	-9.72064
ురాలి	-9.72071
▁తీర్పు	-9.72079
రేఖ	-9.72082
▁పనిచేస్తున్న	-9.72082
▁జస్టిస్	-9.72108
ేవారు	-9.72145
▁అరుణ	-9.72207
▁భక్తుల	-9.72214
షీ	-9.72231
▁ఖాళీ	-9.72236
▁ఇవ్వాలని	-9.72244
భి	-9.72246
ధీ	-9.7227
నాయక	-9.7229
83	-9.72332
▁తరలి	-9.72349
▁చట్టం	-9.72397
▁విలేకరులతో	-9.72445
▁అధికారుల	-9.72466
పక్ష	-9.72474
▁వీలు	-9.72481
▁వెళ్ళిపో	-9.72481
ట్రా	-9.72505
▁గోదావరి	-9.72507
▁ఆకాశ	-9.7252
▁భూముల	-9.72539
▁స్మార్ట్	-9.7263
▁ఏదైనా	-9.72669
▁నరేంద్ర	-9.72677
▁23	-9.72705
▁మారు	-9.72714
▁పెట్టుకుని	-9.72734
ానికీ	-9.72737
కొట్ట	-9.72758
ఖా	-9.72771
▁అగ	-9.72844
బట్ట	-9.72846
వేశ	-9.72918
▁కోహ్లీ	-9.72938
శ్య	-9.73083
▁నెంబర్	-9.73247
పరచ	-9.73311
మన్నా	-9.73325
తాడు	-9.73338
▁కుటుంబం	-9.73345
ున్నాయి	-9.73349
▁ఉత్తరం	-9.73353
▁కర్	-9.73353
▁దేవతల	-9.73424
ధ్వ	-9.73442
▁కూర్చున్నాడు	-9.73456
▁ఇంద్రా	-9.73494
▁ఏర్పడ	-9.73502
▁నెల్లూరు	-9.73526
ంటాడు	-9.73576
▁ఏమిటో	-9.73604
అలా	-9.73618
▁అంగీకరించ	-9.73623
▁ఇటు	-9.7363
త్స	-9.73639
ేవాడు	-9.73647
▁పోస్ట్	-9.7366
▁చూడగానే	-9.7367
యంగా	-9.73722
▁వూర	-9.73756
▁కూడ	-9.73787
ంటున్న	-9.73791
▁ఒక్కొక్క	-9.73837
▁చూస్తా	-9.73845
▁కలుగ	-9.73849
ర్ధ	-9.73894
▁పరుగు	-9.7394
▁పాలు	-9.73943
▁అధ్యక్ష	-9.73979
సరి	-9.73981
▁దగ్గిర	-9.74024
▁ఉండాలి	-9.74029
▁కార	-9.74041
ల్లీ	-9.74099
వల్	-9.74152
!'	-9.74175
మునకు	-9.74214
▁విషయాలు	-9.74273
▁అర్థ	-9.74279
▁పరుగెత్త	-9.74305
▁ఎకరాల	-9.74348
▁తగిన	-9.74376
▁అగ్ర	-9.74404
ుతున్నాడు	-9.74411
డుతూ	-9.74426
▁తిరిగ	-9.74468
▁ఇంటర్	-9.74481
▁టైమ్	-9.74533
▁విషయాల	-9.74546
▁కెమెరా	-9.74555
▁శరీర	-9.7457
▁కంఠం	-9.74581
▁చెట్టు	-9.74582
▁స్కూల్	-9.74594
▁నేల	-9.7464
▁వర్ష	-9.74652
▁ఉప్పు	-9.74759
ఒ	-9.74783
▁దిన	-9.74863
రింగ్	-9.74963
ాత్మక	-9.75059
తప్ప	-9.75076
▁మనుషుల	-9.75081
ేశ్వర	-9.75103
▁అత్త	-9.75143
▁మరణించ	-9.75158
మర	-9.75184
▁దేశం	-9.752
▁ఇంద్రుడు	-9.7522
▁గర్భ	-9.75224
ాలన్నారు	-9.75232
▁వేయించ	-9.75245
ంభ	-9.7526
▁తరవాత	-9.7528
▁బాధపడ	-9.75295
▁పాపం	-9.75299
▁చెప్పా	-9.75305
▁వాయిదా	-9.75311
▁దేవత	-9.75329
▁ఆద	-9.75413
ుడవు	-9.75442
▁సబ్	-9.75487
▁తెలుసుకున్న	-9.75511
▁తే	-9.75538
వుగా	-9.75541
డ్డ	-9.75549
శాంత	-9.75575
▁అప్పగించ	-9.75578
టికి	-9.756
▁సెంటర్	-9.75691
▁వేళ	-9.75768
▁ఉన్నట్లు	-9.75777
వద్దు	-9.7586
▁నేడు	-9.75885
▁ఎఫ్	-9.75899
▁అధిక	-9.75921
▁చూసే	-9.75924
▁వస్తూ	-9.75952
తాను	-9.76001
?'	-9.76091
ుడిగా	-9.76133
▁మర్చిపో	-9.76207
బెట్ట	-9.76218
▁ఖాన్	-9.76229
▁పైన	-9.7623
చ్చింది	-9.76248
▁ఏర్పాట్లు	-9.76261
▁నవ్వి	-9.76304
▁నగదు	-9.76328
▁ఎగ	-9.76352
య్యాయి	-9.76407
▁తీస	-9.76435
▁రాఘవ	-9.76459
▁కదూ	-9.76506
ముఖ	-9.76507
▁ప్రాంతాల	-9.7658
▁తనే	-9.76585
వాద	-9.76595
దేవ	-9.76616
▁హోం	-9.76621
▁నాక	-9.76626
రకం	-9.76699
▁కళ్ళలో	-9.76709
▁ప్రొఫెసర్	-9.7671
నాలు	-9.76749
▁వర్షం	-9.76769
▁తెలి	-9.76793
▁చాల	-9.76835
▁ప్రయోగ	-9.76842
బే	-9.76859
▁మొహ	-9.76975
▁సొంత	-9.77073
వుంది	-9.77108
ండ్ర	-9.77118
▁సన్	-9.77122
సిన	-9.7717
వేద	-9.77171
▁హాస్పిటల్	-9.77224
▁జంట	-9.7723
క్కా	-9.77261
▁ప్రభుత్వానికి	-9.77288
మన్న	-9.77306
మయింది	-9.77307
నువ్వ	-9.77319
▁సగం	-9.77346
▁దో	-9.77355
▁తయారీ	-9.77382
▁డై	-9.77423
▁వెళ్ళాడు	-9.77437
▁ఊరి	-9.7745
ంటీ	-9.77496
▁యూనివర్సిటీ	-9.77514
▁ముక్క	-9.77531
▁శాంతి	-9.77643
▁ఆదేశించారు	-9.77718
▁ఉద్యోగ	-9.77737
▁భుజం	-9.77738
▁అవగాహన	-9.7774
▁మందికి	-9.77753
▁ప్రీ	-9.77765
నాథ	-9.77771
▁సంతోష	-9.7785
▁సోమము	-9.77886
▁చేసినా	-9.77891
▁కూడిన	-9.77931
▁మొదలు	-9.77939
▁వివాహ	-9.77941
▁గురి	-9.77976
▁నిధుల	-9.77983
▁వొ	-9.78019
కానీ	-9.78035
▁గుడ్	-9.78043
▁బూ	-9.78047
శాడు	-9.78055
▁సినిమాలు	-9.78093
▁అరగంట	-9.781
ోంది	-9.78143
▁సీరియస్	-9.78162
డుతున్న	-9.78196
రాజ	-9.78387
లాడ	-9.78438
▁సైట్	-9.78442
▁ఉంద	-9.7846
ెక్కడ	-9.78505
ేసిన	-9.78544
▁ఫేస్	-9.78555
దె	-9.78596
▁ఆయనకు	-9.78618
▁ఢిల్లీలో	-9.78656
భీ	-9.78701
▁షాపు	-9.7878
సార	-9.78782
▁కళాశాల	-9.78884
రేషన్	-9.78932
▁సాగు	-9.78967
దల	-9.78972
▁వర్	-9.78976
వలె	-9.78993
▁తాజా	-9.79028
▁ఆపరేషన్	-9.79087
▁కోపంగా	-9.79143
▁కావాలని	-9.7917
▁మోస	-9.79192
▁కనిపించింది	-9.79203
పైన	-9.79215
▁రొ	-9.79264
▁సమర్పించ	-9.79308
▁డిగ్రీ	-9.79372
▁వర్క్	-9.79378
▁ఆహ్వానించ	-9.7939
శం	-9.79444
▁వెళ్ళిపోయింది	-9.79448
▁కాక	-9.7945
కార్	-9.79453
▁ఎనిమిది	-9.79455
81	-9.79502
కొచ్చింది	-9.79599
ఫో	-9.79607
▁మ్యా	-9.79628
▁కార్యక్రమం	-9.79684
▁ఫో	-9.79692
ుచు	-9.79704
▁వెబ్	-9.79759
▁స్థితిలో	-9.79823
దిరి	-9.79826
▁అందుబాటులో	-9.79926
ెయిన్	-9.79966
▁మేం	-9.79987
ంటున్నారు	-9.79988
దానం	-9.80126
▁బంగారు	-9.80136
క్కి	-9.80228
▁నాయకులు	-9.80229
▁ఉండగా	-9.8027
▁ఎత్త	-9.80291
▁మార్గం	-9.80302
రామ్	-9.80333
▁వేరే	-9.80377
▁హె	-9.80441
చర	-9.80464
▁వాటా	-9.80508
రాయి	-9.80528
▁చల	-9.80529
స్ప	-9.80585
▁తూ	-9.80586
▁పులి	-9.80669
▁కాళ్ళ	-9.807
▁చదవ	-9.80747
▁ప్రయాణ	-9.80781
ాయన	-9.8081
డంలో	-9.80817
▁విసిర	-9.80832
భావ	-9.80924
▁జాగ్రత్తగా	-9.80944
▁నూ	-9.80949
▁కాద	-9.80951
ఏమిట	-9.80953
▁అందంగా	-9.80978
▁పెట్టిన	-9.81047
స్తుందని	-9.81213
▁మన్	-9.81227
▁ప్రెస్	-9.81245
▁దారుణ	-9.8131
▁4.	-9.81324
▁గ్ర	-9.81376
ుకోండి	-9.81412
బాటు	-9.81444
▁వచ్చాయి	-9.8146
▁ఉత్పత్తి	-9.81467
▁సంస్థల	-9.815
▁పసి	-9.81527
▁పుట్టిన	-9.81549
దారు	-9.8155
▁దశ	-9.81563
▁మౌనంగా	-9.81595
▁లోనే	-9.81599
▁గడ్డ	-9.81603
▁ఖమ్మం	-9.81672
▁సహాయ	-9.81695
ుకుంటున్నా	-9.81695
▁నటించిన	-9.81698
▁ఎవరికీ	-9.81827
▁నీళ్లు	-9.81864
స్తుండగా	-9.819
▁రామకృష్ణ	-9.81939
దాం	-9.81986
▁మనకు	-9.82003
గ్ర	-9.82014
▁దీ	-9.82033
▁ఇవి	-9.82047
▁సమస్యలు	-9.82063
▁బస్	-9.82125
ానంద	-9.82132
ర్యా	-9.82347
▁లారీ	-9.82406
▁దానిని	-9.82443
▁దర్శక	-9.82491
▁మత	-9.82551
▁జ్యోతి	-9.82558
▁హిట్	-9.82586
ల్డ్	-9.82591
స్తుంటే	-9.82627
▁ఒక్కసారి	-9.82679
ాభి	-9.82729
▁పరుగుల	-9.82733
▁స్టే	-9.82739
ోత్సవ	-9.82757
స్తాయి	-9.82769
▁నియమించ	-9.82785
నల్	-9.82788
▁రోడ్	-9.82792
▁సూచన	-9.82823
▁ఆంధ్రజ్యోతి	-9.82838
లైన	-9.82883
ఫై	-9.82897
రాత్రి	-9.82926
▁తేడా	-9.82954
▁ప్రి	-9.8296
▁కాన్	-9.82966
▁నోటి	-9.83077
▁అనుకున్నాడు	-9.8309
▁టీవీ	-9.83099
▁ఆగ్రహం	-9.83107
▁షేర్	-9.83142
▁సహ	-9.8315
▁నర్	-9.83156
▁చేసినట్లు	-9.83197
▁మీరే	-9.83217
▁విమానం	-9.83235
వటం	-9.83479
▁ఆఫర్	-9.83499
ంటాయి	-9.83527
న్నట్లు	-9.8354
ుతూనే	-9.83553
ంకా	-9.83591
గారికి	-9.83598
ుకోలేదు	-9.8365
▁యూనిట్	-9.83667
▁నుంచే	-9.83674
ద్య	-9.83677
▁పోర్టు	-9.83703
ష్య	-9.83727
▁రూపొందించ	-9.8373
▁బంగారం	-9.83746
ాలపై	-9.8379
ర్ర	-9.83796
▁గ్రామంలో	-9.83802
▁చేసుకుంది	-9.83866
▁యజ్ఞ	-9.83871
▁ప్రయాణం	-9.83881
ొచ్చి	-9.83893
▁డ్ర	-9.83975
వేయ	-9.84116
▁కత్తి	-9.84135
▁టాప్	-9.84155
▁వినియోగ	-9.842
▁రాష్ట్రాల	-9.84211
▁అల్	-9.84238
ండో	-9.84268
పాడు	-9.84275
▁ఉంటుంద	-9.84288
▁విమాన	-9.84291
పరు	-9.84421
ద్దాం	-9.84454
▁31	-9.84481
ిగా	-9.84537
ించాలని	-9.84537
▁కలసి	-9.8456
ుకోవాల	-9.84564
▁కష్ట	-9.84589
నుంచీ	-9.84599
వన	-9.8463
రాల	-9.84631
▁వాతావరణం	-9.84693
▁పెద్దగా	-9.84799
▁జగ	-9.84806
గొ	-9.84896
▁అబ్బ	-9.84939
క్ర	-9.85085
▁శ్	-9.85087
▁తీసుకొ	-9.85111
▁హు	-9.85132
▁సాగి	-9.85143
ుకుంటారు	-9.85216
ెక్క	-9.85292
ఎందుక	-9.85311
▁సిద్ధం	-9.85322
నాధ	-9.85451
▁మంత్రులు	-9.85486
▁తెలివి	-9.85515
▁ఉద్యమ	-9.85551
▁గ్	-9.85601
▁మిస్	-9.85603
▁గాని	-9.85612
▁మొక్క	-9.85682
▁తీసుకొని	-9.85685
ింత	-9.85687
▁వృద్ధి	-9.85694
▁బట్టి	-9.85709
బంధ	-9.85757
▁అవకాశాలు	-9.85766
▁సెలవు	-9.85798
▁ఏక	-9.85825
ిస్తుంది	-9.85838
▁భరించ	-9.85853
లక్షల	-9.85868
▁మోసం	-9.85874
▁చెక్	-9.85895
▁పెట్టింది	-9.85917
నారాయణ	-9.85924
▁ఎవరైనా	-9.8593
ానికే	-9.8593
▁విర	-9.86009
పోతుంద	-9.86016
▁స్పందించ	-9.86025
▁కరీంనగర్	-9.86108
ాల్ని	-9.86155
యస్	-9.86181
.2	-9.86243
▁ఇదంతా	-9.86356
▁స్వయంగా	-9.86356
ష్ఠ	-9.86361
▁సెట్	-9.86391
▁సుబ్బ	-9.86407
▁అక్కడికి	-9.86443
▁సినిమాకు	-9.86445
తాయి	-9.86497
▁నిర్వహిస్త	-9.86576
▁కెప్టెన్	-9.86602
▁ప్రతిపక్ష	-9.86644
▁పట్టి	-9.86662
▁ఒత్తిడి	-9.86673
యుక్త	-9.86695
ష్టం	-9.86717
ెస్	-9.86728
▁తల్లిదండ్రులు	-9.86761
▁ఎత్తి	-9.86773
▁వచ్చాను	-9.86779
▁భారీగా	-9.86876
▁ఆధారంగా	-9.86879
▁రాష్ట్రపతి	-9.86911
▁మారింది	-9.86949
▁వేసిన	-9.86978
▁మరణ	-9.86991
▁ఐటీ	-9.87056
▁దూరంలో	-9.87061
▁వాళ్ళకి	-9.87084
▁ఈనెల	-9.87132
▁ఆస్తి	-9.8715
▁ఆర్టీసీ	-9.87188
త్యా	-9.87199
కొని	-9.87275
నాథ్	-9.87319
▁తీసుకెళ్ల	-9.87455
▁కొన	-9.87475
త్రం	-9.87484
జ్ఞా	-9.87502
▁అమెరికాలో	-9.87505
శ్వ	-9.87531
▁ప్రతీ	-9.87545
▁విశాఖపట్నం	-9.87546
▁డాక్టరు	-9.87547
▁దక్షిణ	-9.87555
▁రాగానే	-9.87577
▁రకరకాల	-9.87597
ాదేవి	-9.87637
▁తయార	-9.87655
స్వ	-9.87683
గ్న	-9.877
మిత్ర	-9.87714
▁అవసరమ	-9.87769
సింది	-9.87785
▁భక్తులు	-9.87902
ెక్కి	-9.87943
▁చింత	-9.87948
▁మంజరి	-9.87992
▁ప్రకాశ	-9.88079
▁పచ్చ	-9.8812
ంటోంది	-9.88129
▁తీసుకోవాలని	-9.88148
▁శ్రమ	-9.88168
ిణి	-9.88255
పాల్	-9.88258
▁శాస్త్ర	-9.88465
▁ఇచ్చింది	-9.88499
▁5.	-9.88511
▁ముద్ద	-9.88545
▁పరిమిత	-9.88556
క్కడ	-9.88565
▁నవంబర్	-9.88603
▁కార్య	-9.88629
రామయ్య	-9.88647
▁వివరించ	-9.88655
▁వేలు	-9.8868
▁పూర్వ	-9.88777
టన్	-9.8891
▁సరఫరా	-9.88928
▁పోయి	-9.88952
▁నష్టం	-9.88959
ెల్	-9.89035
▁కన్ను	-9.89046
▁టూ	-9.89137
వార్	-9.89173
▁పథకాల	-9.89184
▁మాట్లాడలేదు	-9.89198
▁పడ్డ	-9.89204
ాని	-9.89218
▁నిండి	-9.89284
▁డబ్బ	-9.89331
▁బయల్దేర	-9.89363
▁నిర్వహణ	-9.89364
▁40	-9.89366
వాళ్ల	-9.89371
▁రైతులకు	-9.89426
ాలా	-9.89459
▁టికెట్	-9.89526
▁ఒకవేళ	-9.89527
▁వెళ్ళింది	-9.896
ింటి	-9.89615
▁అడుగుల	-9.89646
▁తీసుకున్నారు	-9.89666
షియ	-9.89739
▁రఘు	-9.89764
▁తొలిసారి	-9.8977
ఇంత	-9.89822
కుండానే	-9.89823
▁మెల్లగా	-9.89838
▁దూ	-9.89909
▁మంత్ర	-9.89917
▁వెళుతున్న	-9.90041
▁భద్రత	-9.90049
▁ఇళ్ల	-9.90051
కెట్	-9.90063
▁టెస్ట్	-9.90093
▁ఉద్దేశ	-9.90099
సేపటి	-9.90115
▁ఇందుకు	-9.90159
▁దగ్గరగా	-9.90159
▁వీధి	-9.90323
జై	-9.9035
▁అనేది	-9.90354
▁రాసి	-9.90384
గల్	-9.90487
▁గాక	-9.90488
▁చిరు	-9.90488
లేకపోయింది	-9.90515
▁తెలీ	-9.90552
▁తోచ	-9.9056
వారికి	-9.90585
▁కిటికీ	-9.90633
▁ప్రణాళిక	-9.90644
▁త్వరలోనే	-9.90698
▁లక్ష్య	-9.90737
-2	-9.90825
దురు	-9.90905
▁దయ	-9.90907
▁కొంతమంది	-9.90915
▁ప్రవేశించ	-9.9094
అమ్మ	-9.90951
▁పురుష	-9.90954
▁నిజ	-9.90986
▁కారణమ	-9.90986
▁ఓవర్	-9.91
▁వదల	-9.91021
▁బాస్	-9.91042
నాయుడు	-9.9106
▁వహించ	-9.91065
గడ	-9.91084
▁సాధారణ	-9.91118
థా	-9.91127
▁ఎమ్మెల్సీ	-9.91198
▁పరమ	-9.91219
▁కూర్చుంది	-9.91267
వూ	-9.91276
..?	-9.91282
▁నిధులు	-9.91282
▁కారులో	-9.91287
▁శంకర్	-9.91301
▁మొబైల్	-9.91309
శ్చ	-9.91337
▁అనంతపురం	-9.91351
ప్పుడ	-9.9139
▁ఫ్యా	-9.91392
▁గుర్తింపు	-9.91392
▁కావడంతో	-9.9141
▁మంట	-9.91435
న్నట్టు	-9.91462
▁కౌంటర్	-9.91495
▁శశి	-9.91516
ట్లుగా	-9.91622
▁ప్రదర్శన	-9.91643
▁మానసిక	-9.91667
▁జారి	-9.91671
▁పరిశ్రమ	-9.91716
▁వేసుకుని	-9.91725
▁పాలన	-9.91767
▁ట్వీట్	-9.9183
కాలు	-9.91832
డింగ్	-9.9188
▁రూపొంద	-9.91945
▁వుంటారు	-9.91964
లిక	-9.91974
▁టైటిల్	-9.9198
▁కార్యక్రమాల	-9.92043
కపోవడంతో	-9.92063
▁పక్కనే	-9.92109
పడుతున్న	-9.92123
▁హౌస్	-9.92129
▁శుభ	-9.92181
▁సంధ్య	-9.92198
▁వల	-9.92199
రగ	-9.9222
▁థ	-9.9222
▁స్పష్టంగా	-9.92258
▁మామూలు	-9.92269
▁లను	-9.92334
▁100	-9.9234
లుగు	-9.92379
ందామె	-9.92404
▁లక్ష్మీ	-9.92457
▁మనస్సు	-9.92464
▁వివాహం	-9.92484
▁ఉన్నత	-9.92496
ుడికి	-9.92555
▁ఆలోచిస్తున్న	-9.92566
▁సమయానికి	-9.92574
▁బ్లాక్	-9.92578
▁ప్రత్యేకంగా	-9.92602
చోట	-9.92649
▁చొప్పున	-9.92691
పడే	-9.92748
ంటో	-9.92753
▁పెడ	-9.92761
ుడిని	-9.9278
▁కానిస్టేబుల్	-9.92803
▁నగరంలో	-9.9283
▁కర్నూలు	-9.92878
▁కిరణ్	-9.92897
▁ఉగ్రవాద	-9.92915
▁వడ్డీ	-9.92921
▁ఫస్ట్	-9.92951
▁ఉదయ	-9.92955
చూసి	-9.93008
▁తల్లిదండ్రుల	-9.9301
ాన్నే	-9.93026
▁సహాయం	-9.93047
▁వ్యాధి	-9.9305
▁స్వా	-9.93057
▁గ్రామానికి	-9.93068
షు	-9.93082
▁కార్మికుల	-9.93096
▁కలిగిన	-9.93116
శో	-9.93168
▁ప్రైవేటు	-9.9318
▁కాలి	-9.93211
▁ప్రక్రియ	-9.93218
ంక్	-9.93287
▁వీటిని	-9.93313
▁పూల	-9.93329
▁హఠాత్తుగా	-9.93331
▁అన్నయ్య	-9.9334
▁మీడియాతో	-9.93348
▁ప్లా	-9.9336
▁మంచం	-9.93366
▁అంటున్నారు	-9.9347
▁బ్ల	-9.93489
స్తోందని	-9.93585
▁నాటికి	-9.93642
▁నూతన	-9.93665
▁పంపిణీ	-9.93672
▁చివరికి	-9.93778
▁వ్యవహారం	-9.93794
▁చేస్తాను	-9.93877
జ్జ	-9.93894
▁అర్	-9.93909
న్నాను	-9.93997
▁ఇప్పుడే	-9.94052
నించి	-9.94065
▁తాగి	-9.9407
▁వర్గాలు	-9.94074
▁ఎక్కడి	-9.94079
▁తిన్న	-9.94093
▁విశేషం	-9.9411
▁చూడాలి	-9.94154
▁కోసమే	-9.94159
▁కార్యాలయంలో	-9.94194
▁సరైన	-9.94212
కూడద	-9.94249
ఇది	-9.9425
పీఎస్	-9.94267
▁పెట్టాడు	-9.94277
▁కాలు	-9.94293
▁సిగరెట్	-9.9432
ళా	-9.94405
▁చు	-9.94405
లియ	-9.94411
పార	-9.94416
వాలి	-9.94421
▁ముక్కలు	-9.94438
▁సుబ్బారావు	-9.94442
వచ్చి	-9.94467
▁విదేశీ	-9.94473
▁ముస్లిం	-9.94511
▁గడిచి	-9.9452
భారత	-9.94551
▁మొదట	-9.94582
ప్రద	-9.94605
▁విషయమ	-9.94633
▁అందు	-9.94644
▁దూసుకు	-9.94665
పాద	-9.94669
▁లాగ	-9.94685
▁విద్యార్థి	-9.94688
▁సెప్టెంబర్	-9.94702
▁వర్షాలు	-9.94746
▁పరిధిలో	-9.94748
▁సమాన	-9.94781
▁శబ్దం	-9.94801
ఎందుకు	-9.9488
▁అటూ	-9.9488
▁నిముషాల	-9.94933
▁ఆవేదన	-9.94941
▁చెప్పాను	-9.94994
ేళ్ల	-9.95002
▁మెదడు	-9.95087
చేసిన	-9.95113
▁గ్రూప్	-9.95125
▁విభజన	-9.95125
▁హాయిగా	-9.95132
▁హక్కు	-9.95133
చూడ	-9.95135
▁జం	-9.95186
▁బాబా	-9.95195
▁తేర	-9.952
పుడు	-9.95227
స్తామని	-9.95228
▁సామాజిక	-9.95356
▁డిప్యూటీ	-9.95395
అమ్మా	-9.95404
▁పట్టణ	-9.95426
ుతుండగా	-9.95429
92	-9.9544
▁చేసుకుంటా	-9.9546
▁ఎందుకంటే	-9.95557
▁అంశాల	-9.95561
▁పున	-9.95667
▁టే	-9.95712
▁చెరువు	-9.95729
▁ఉత్తర్వులు	-9.95737
▁చేతుల్లో	-9.95757
ాలే	-9.95767
శాల	-9.95863
▁వుండాలి	-9.95871
ధర్	-9.95875
▁తప్పించ	-9.96013
▁సాగర్	-9.96021
▁సర్వీసు	-9.96132
ెవరో	-9.96184
▁హీరోగా	-9.96209
▁వాళ్లు	-9.96222
▁సభలో	-9.96228
▁మునిగి	-9.96289
▁హృదయ	-9.96295
▁స్థిర	-9.96315
▁నెట్	-9.96323
▁గంటలు	-9.96385
▁డిస్	-9.96391
లికి	-9.96471
▁స్వీ	-9.96559
కపోవడం	-9.96567
వాహ	-9.96583
▁తోట	-9.96605
లెట్	-9.96607
మార్	-9.96644
▁చేస్తుంది	-9.96659
,000	-9.96768
▁యుద్ధ	-9.96844
▁బోర్	-9.96846
▁అనుకుంది	-9.96853
▁కిలోమీటర్ల	-9.96873
▁నిర్మ	-9.96889
▁కుడి	-9.96895
టెక్	-9.9695
▁నిత్య	-9.96982
డంలేదు	-9.97003
దార్	-9.97009
▁లైట్	-9.97033
▁తలుపులు	-9.97089
▁కేసులు	-9.97118
▁అవంతి	-9.97158
అబ్బ	-9.97201
మోహన్	-9.97209
▁న్యాయం	-9.97227
▁దీనిని	-9.97227
గణ	-9.97242
▁అనుమాన	-9.97242
▁ప్రే	-9.97254
ధం	-9.97296
ధార	-9.97298
▁కనిపిస్తున్న	-9.97309
గూడ	-9.9732
▁ఫల	-9.97367
ాలంటూ	-9.97383
▁గ్రా	-9.97392
▁జనరల్	-9.97464
య్యి	-9.97513
▁ఆస్తుల	-9.97532
దగ్గర	-9.97537
సాగాడు	-9.97573
▁తరలించ	-9.97597
▁చేరుకున్న	-9.97616
మీర	-9.97619
స్టర్	-9.97694
▁టాలీవుడ్	-9.977
త్రా	-9.97763
▁తార	-9.97786
▁వుంటుంద	-9.9781
యల్	-9.9783
▁క్షణంలో	-9.97856
▁భారతి	-9.97858
▁కసి	-9.97889
్రా	-9.97904
దేవి	-9.97918
ండగా	-9.97944
▁గౌరవ	-9.98003
▁నేతల	-9.98004
▁కుల	-9.98074
దారుల	-9.98118
ుతు	-9.982
ద్ది	-9.98243
▁మంగ	-9.9829
ేశ్వర్	-9.98302
▁సేకరించ	-9.98306
బోతు	-9.98337
▁భా	-9.98349
▁అడిగి	-9.98387
▁చేప	-9.98425
▁దేని	-9.9852
▁ప్రత్యక్ష	-9.98533
▁ఆహ్వాన	-9.98591
▁విశాల	-9.98602
బల	-9.98628
▁వైద్యులు	-9.98669
▁జు	-9.98714
▁గౌ	-9.98714
▁తాక	-9.98717
▁గుడి	-9.98727
స్తాడు	-9.98734
▁విప్ప	-9.98742
▁వందల	-9.9876
ుకొనే	-9.98778
వద్ద	-9.98841
మనిషి	-9.98873
▁ఆనందంగా	-9.98878
▁అడుగుపెట్ట	-9.98879
▁రేప	-9.98896
▁అందమైన	-9.98924
మల్	-9.98944
▁అదుపులోకి	-9.98957
▁సౌకర్య	-9.98975
▁సాయి	-9.99008
▁కడుపు	-9.99017
వుతుంది	-9.99049
మాల	-9.99059
▁పాము	-9.99068
▁తొందర	-9.99068
▁ఇంద్రుని	-9.99081
▁బలంగా	-9.99082
▁అడ్	-9.99095
లాండ్	-9.99131
▁ఆరో	-9.99151
▁చేశాను	-9.99193
▁కనపడ	-9.99199
▁విచిత్ర	-9.99225
▁సిరీస్	-9.99255
స్తోంద	-9.99283
▁వార్	-9.99333
▁చేయండి	-9.99335
▁నాతో	-9.99358
▁పిలుపు	-9.99378
▁పల్లె	-9.9945
▁సమీపంలో	-9.9949
▁చిరంజీవి	-9.99494
ొచ్చింది	-9.99519
▁పోరాడ	-9.99573
ఫర్	-9.99585
▁యిచ్చ	-9.99597
▁భారతీయ	-9.99638
▁నాటి	-9.99645
ద్దామ	-9.99667
▁ఫీల	-9.99712
▁వద్దకు	-9.99742
▁అతడిని	-9.9975
▁చెప్పలేదు	-9.99766
▁కుర్ర	-9.99777
చో	-9.99828
▁లేరు	-9.99834
▁ఎక్కి	-9.99916
ుడైన	-9.9992
▁బాధితుల	-9.99926
▁తల్లీ	-9.99937
▁సాహస	-10.0001
▁ఉరి	-10.0003
▁నిజానికి	-10.0003
▁వ్యక్తులు	-10.0009
▁ఉండదు	-10.0013
▁అభిమానుల	-10.0014
▁యువకుడు	-10.0015
▁దాకా	-10.0027
▁ఆరోగ్యం	-10.0032
▁చూడు	-10.0033
▁మూస	-10.0037
▁కప్ప	-10.0039
▁కలగ	-10.0044
▁వాళ్ళని	-10.0045
స్తుంద	-10.0051
ెత్త	-10.0054
పోయాను	-10.0054
ిద్దరి	-10.0059
▁నేర్చ	-10.0062
▁యాప్	-10.0063
64	-10.0066
డాన్ని	-10.0067
▁ఇష్ట	-10.0068
▁_	-10.0069
▁బైక్	-10.0079
▁పవర్	-10.0081
వారం	-10.0083
వేళ	-10.0083
▁స్థ	-10.0083
ిస్తామని	-10.009
▁వాతావరణ	-10.0093
ళం	-10.0097
▁ప్రసంగ	-10.01
ాడతను	-10.0101
▁.....	-10.012
▁ఉద్	-10.0121
అవున	-10.0122
హాస	-10.0127
▁అతడ	-10.0132
▁వింత	-10.0136
▁నిర్ణయించింది	-10.0138
▁ఎదుట	-10.014
▁ఆఫీసర్	-10.014
▁ప్రకాశం	-10.0151
▁మేడ	-10.0154
బద్ధ	-10.0156
గత	-10.0157
షే	-10.0158
▁నింప	-10.0169
▁మనో	-10.0172
గర్	-10.0175
▁ఆఖరి	-10.0175
72	-10.0179
▁సాధించిన	-10.0184
▁జాలి	-10.0188
▁ప్రతిపాదన	-10.0198
▁ఎస్సీ	-10.0201
▁కవిత	-10.0201
▁స్థితి	-10.0202
▁షి	-10.0202
▁సోదర	-10.0202
▁హర్ష	-10.0203
▁కూతురి	-10.0204
▁లై	-10.0209
▁ప్రతినిధి	-10.021
సారీ	-10.022
సెస్	-10.0221
ాలనుకున్న	-10.0222
▁జిల్లాల్లో	-10.0223
శాతం	-10.0226
నుకో	-10.0227
▁200	-10.023
▁చోట	-10.0231
▁ప్రశంస	-10.0231
ుకున్నాను	-10.0237
▁సంబంధ	-10.0239
▁టో	-10.0247
▁స్పీకర్	-10.0248
తిక	-10.0253
ాలయ	-10.0254
▁తట్ట	-10.0255
▁వ్యక్తుల	-10.0258
▁అన్నట్టు	-10.026
▁ఉన్నట్టు	-10.0262
▁వ్యాఖ్యలు	-10.0268
▁రావటం	-10.0276
▁ప్రమాదంలో	-10.0277
▁తెరిచి	-10.0277
నై	-10.0279
▁పెట్టుకున్న	-10.0285
▁ఆలోచ	-10.0285
తిని	-10.0288
▁పడే	-10.0291
▁మీడియాలో	-10.0294
స్టా	-10.0295
▁బ్రతిక	-10.0295
▁ఆదాయం	-10.0299
▁రోగ	-10.03
▁ఒంటి	-10.03
ధూ	-10.0302
▁వర్గాల	-10.0302
డితే	-10.0305
మంటూ	-10.0307
▁మంగళ	-10.0308
ంటాను	-10.0309
▁నాలుగ	-10.0311
▁లండన్	-10.0314
▁నేటి	-10.0319
▁వారిలో	-10.0324
▁ఆశ్చర్యం	-10.0331
్తే	-10.0333
▁అభిప్రాయ	-10.0341
▁దే	-10.0352
▁ఆస్పత్రికి	-10.0358
▁చిత్రంలో	-10.036
▁చేరి	-10.0361
▁సంస్థలు	-10.0362
▁అన్నం	-10.0363
స్థాయి	-10.0363
▁ఆది	-10.0366
▁శ్రీధర్	-10.0367
▁నాయుడు	-10.0369
▁శిల్ప	-10.0371
బట్టి	-10.0374
▁ఎక్కడో	-10.0375
స్తానని	-10.0379
▁అమర	-10.0379
▁ప్రవేశపెట్ట	-10.038
శాయి	-10.0381
▁హెచ్చరించారు	-10.0382
▁నిలబడ	-10.0388
▁మాస్టర్	-10.0389
▁జుట్టు	-10.039
▁కేక	-10.0391
▁పండ	-10.0398
పడ్డ	-10.0398
▁ఏది	-10.0406
▁లేదో	-10.0409
ుండ	-10.0409
భావం	-10.0418
▁ట్రంప్	-10.0419
మనం	-10.0421
▁సుప్రీంకోర్టు	-10.0423
▁ధనము	-10.0425
▁హిందూ	-10.0427
▁తెలుసుకో	-10.0428
▁వ్రాస	-10.043
ెవరు	-10.043
▁దూక	-10.043
▁తీసుకురా	-10.0431
▁జరుప	-10.0436
▁రూపంలో	-10.0441
త్తర	-10.0442
కలు	-10.0443
డిగి	-10.0443
▁ముక్కు	-10.0444
▁నడవ	-10.0446
▁ఇండియన్	-10.0448
▁దాఖలు	-10.0449
టమే	-10.0449
▁న్యూ	-10.0464
▁క్రమంలో	-10.0466
▁చూస్తుంటే	-10.0471
సిస్	-10.0473
▁చూస్తున్నాడు	-10.0477
▁సమయ	-10.0481
▁తిరుగు	-10.0482
▁రవాణా	-10.0482
▁ఇవాళ	-10.0484
▁అప్పు	-10.0485
▁గణ	-10.0491
▁బాగానే	-10.0493
▁మహేశ్	-10.0495
▁సినిమాను	-10.05
62	-10.0502
▁పెట్టే	-10.0503
▁విశేష	-10.0505
గుడ్	-10.0505
▁దృష్టిలో	-10.0506
▁కాలనీ	-10.0509
▁చేసుకునే	-10.0511
్చ	-10.0511
▁ఓపెన్	-10.0512
▁వర్గ	-10.0517
▁చివర	-10.0521
▁నిమిషాలు	-10.0528
ఇప్పుడు	-10.0531
▁దర్శన	-10.0532
▁అయిపోయింది	-10.0533
▁ప్ల	-10.0534
ట్లా	-10.0536
▁వాయు	-10.0538
▁చెంప	-10.0539
▁ట్రై	-10.055
▁ఘోర	-10.0551
ళ్	-10.0552
కాలంలో	-10.0559
▁6.	-10.0561
▁ముసల	-10.0561
అంత	-10.0563
▁పారిపో	-10.0566
▁పేద	-10.0566
▁కర్మ	-10.0566
ుతోందని	-10.0568
▁కార్పొరేషన్	-10.057
▁గం	-10.057
▁హింస	-10.0571
చేసే	-10.0574
శేఖర	-10.0576
▁సాంకేతిక	-10.0576
▁నడి	-10.058
▁స్వీకరించ	-10.0582
జో	-10.0583
ంలా	-10.0586
▁పూర్తయి	-10.0587
చేస	-10.0588
▁నిబంధనల	-10.059
▁బ్రా	-10.0592
▁డబ్బులు	-10.0592
▁స్నానం	-10.0597
▁రెడీ	-10.0598
▁అనుభవం	-10.0602
▁పోస్టు	-10.0602
▁సంగీత	-10.061
▁రిజర్వేషన్	-10.061
▁చేపట్టిన	-10.0612
▁వ్యాపారం	-10.0613
్తె	-10.0618
▁భారతదేశ	-10.0623
▁ఊపిరి	-10.0623
▁లక్ష్యం	-10.0627
ిరెడ్డి	-10.0627
కాక	-10.0627
▁సాధారణంగా	-10.0634
డిగా	-10.0636
▁సంతోషం	-10.064
▁ఉపాధి	-10.0641
▁పెరుగు	-10.0646
ఫె	-10.0649
▁నటిస్తున్న	-10.065
డెన్	-10.0653
▁వినియోగించ	-10.0656
▁ఊప	-10.0658
▁షిప్	-10.0658
స్థల	-10.066
▁జీవన	-10.0662
▁ప్రయాణికుల	-10.0663
▁క్యూ	-10.0666
▁మిగిలి	-10.0667
▁ట్రా	-10.067
▁తోడు	-10.0671
▁అవసరమైన	-10.0672
▁రాసిన	-10.0673
▁పరిగెత్త	-10.0675
వాల్	-10.0678
▁మంజూరు	-10.0679
▁సుధ	-10.0681
ేశ	-10.0682
స్తున్నారని	-10.0683
▁చెప్పాలి	-10.0684
న్నె	-10.0689
▁ఇక్కడే	-10.0694
కెళ్ల	-10.0696
▁క్రీడ	-10.0698
▁ఉంటారు	-10.0699
బూ	-10.0704
వేలు	-10.0706
▁సామాన్య	-10.0706
▁వెయ్యి	-10.0706
▁బాల్	-10.0718
తంగా	-10.072
▁యె	-10.0721
▁సదస్సు	-10.0724
కర్త	-10.0727
▁బహు	-10.0728
▁ఆమెని	-10.0729
ుతారు	-10.073
టికీ	-10.0731
స్తీ	-10.0732
▁సృష్టి	-10.0734
▁వస్తోంది	-10.0735
▁సొ	-10.0735
▁గడువు	-10.0736
▁జరుగ	-10.0737
▁కళ్ల	-10.0745
▁త్యాగ	-10.0745
క్షణం	-10.0746
▁అంటారు	-10.0751
▁అభిమాన	-10.0754
▁ఇస్తున్న	-10.0754
▁బయటి	-10.0759
ంద్ర	-10.0761
▁కుమార్తె	-10.0763
ిస్తాను	-10.0763
▁వినిపించింది	-10.0765
▁ఫ్రెండ్	-10.0765
▁ఓడి	-10.0767
రాయ	-10.0771
గించ	-10.0773
▁జరిగింద	-10.0774
▁అయ్యే	-10.0779
▁యాదవ్	-10.078
▁ఎటువంటి	-10.078
▁దండ	-10.078
▁అన్యాయం	-10.078
▁భాగం	-10.0784
ేమీ	-10.0786
▁తృప్తి	-10.0788
▁సినిమాల్లో	-10.0795
▁గ్లాసు	-10.0797
ామె	-10.0797
పోయ	-10.0799
పర	-10.0799
▁గుర్తించారు	-10.08
▁కలిగింది	-10.08
ంచుకుని	-10.0805
▁పేల	-10.0808
▁నీటిని	-10.081
▁అంబ	-10.081
▁ప్రవర్తించ	-10.0813
వడానికి	-10.0814
▁భయంతో	-10.0816
ఎలా	-10.0818
▁లోపలకు	-10.0824
▁ఉత్తమ	-10.0826
▁వన	-10.0831
▁ఆలోచనలు	-10.0835
▁గౌతమ్	-10.0835
▁ప్రాజెక్టుల	-10.0836
▁తప్పదు	-10.0836
▁చేస్తున్నాడు	-10.0852
▁ఆహార	-10.0853
గురు	-10.0856
▁కంపెనీల	-10.0856
▁అభ్యర్థి	-10.0859
▁భర్తీ	-10.0861
▁గేటు	-10.0863
కరణ	-10.0865
▁మద్యం	-10.0867
బోయాడు	-10.0868
▁అల్లు	-10.087
▁వలన	-10.0871
▁అభిప్రాయం	-10.0872
▁విధి	-10.0874
ృత	-10.0878
▁ఊహ	-10.0878
ట్లే	-10.0881
▁పాలి	-10.0885
▁ఫీజు	-10.0889
▁నుంచీ	-10.0892
▁గజ	-10.0894
వంక	-10.0898
▁ఆల్	-10.0899
ంలోకి	-10.0901
94	-10.0903
▁పవిత్ర	-10.0903
▁కళ	-10.0906
▁విద్యార్థులకు	-10.0912
▁అంతేకాదు	-10.0916
▁ఫైనల్	-10.0918
▁సంఘ	-10.0919
▁న్యూస్	-10.0924
▁ఇబ్బందులు	-10.0927
▁వీరు	-10.0928
గూ	-10.0928
▁దర్శకత్వంలో	-10.0933
ష్టి	-10.0934
వ్యా	-10.0936
▁పరు	-10.0937
▁ప్రదర్శించ	-10.0938
▁వ్యతిరేకంగా	-10.0939
▁నవల	-10.094
▁ఒప్పందం	-10.0943
▁అణు	-10.0945
ూరి	-10.0948
▁ఉన్నాయని	-10.0951
▁సహజ	-10.0954
చారం	-10.0954
▁భారం	-10.0955
▁మొహంలో	-10.0963
▁టెక్నాలజీ	-10.0965
్నీ	-10.0965
82	-10.0971
▁ఉంటున్న	-10.0976
▁పొట్ట	-10.0977
▁స్టేట్	-10.0983
లని	-10.0985
కొద్దీ	-10.0988
▁హార్	-10.0989
న్యాస	-10.099
ుంటే	-10.099
▁ఇద్దర	-10.0995
▁చచ్చి	-10.0998
యాన్	-10.0999
డ్డు	-10.1001
▁కొరకు	-10.1001
▁తరగతి	-10.1005
▁మహిళలు	-10.1008
▁తప్పనిసరి	-10.101
నియా	-10.101
చ్చా	-10.1013
గట్ట	-10.1018
▁కాసేపు	-10.1018
▁ఒడి	-10.102
▁ఏమైనా	-10.1027
▁శత	-10.1028
▁తరహా	-10.1033
శక్తి	-10.1037
ందరికీ	-10.1047
▁హెడ్	-10.1055
▁నిర్లక్ష్యం	-10.1057
ెస్ట్	-10.1057
▁సార	-10.1057
పడుతూ	-10.1061
▁నిర్మల	-10.1061
▁వెళ్లిన	-10.1063
▁చెవి	-10.1069
▁రాజ్య	-10.1071
▁నై	-10.1073
▁చేశారని	-10.1073
▁హే	-10.1074
▁ఆలోచిస్తూ	-10.1075
▁వేష	-10.1075
▁మొదలెట్ట	-10.1077
▁రెండేళ్ల	-10.1082
ాబాద్	-10.1091
పడ్డా	-10.11
▁పరిస్థితుల	-10.1102
▁మామూలుగా	-10.1105
▁వరుస	-10.1106
ేదో	-10.1107
▁చెట్ల	-10.1109
▁చెబుతా	-10.1114
74	-10.1115
▁ఎందుకో	-10.1115
స్టి	-10.1115
▁మహబూబ్	-10.1117
▁డిసెంబర్	-10.1122
▁వయసులో	-10.1122
▁కెరీర్	-10.1136
▁ఏమిట	-10.1138
▁అఖిల	-10.1141
ంటారా	-10.1146
▁ఎప్పుడో	-10.1148
ుటకు	-10.1154
బ్ర	-10.1157
త్రీ	-10.1157
▁అశ్వ	-10.1158
▁పలిక	-10.1159
▁పిటిషన్	-10.1163
▁క్షణ	-10.1164
ునది	-10.117
▁సారి	-10.117
పట్ల	-10.1174
▁చేతికి	-10.1176
▁ఎస్పీ	-10.1178
▁చేసుకున్నాడు	-10.118
▁కార్యక్రమాలు	-10.1182
▁పుస్తకం	-10.1189
జాల	-10.1193
▁వెళ్ళే	-10.1193
▁అక్టోబర్	-10.1195
▁వదిలే	-10.1196
▁చర్య	-10.1202
▁రావడంతో	-10.1202
చింది	-10.1203
▁నరసింహ	-10.1209
శీల	-10.121
▁కంటి	-10.1211
పడిన	-10.1212
▁సినిమాల	-10.1212
▁మట్టి	-10.1214
▁ఢీ	-10.1217
▁సీతా	-10.1218
▁వేట	-10.1218
▁ఉండటం	-10.1219
▁మూసుకు	-10.122
▁వాల్	-10.1229
గూడెం	-10.1234
▁మమ్ము	-10.1234
▁బాధిత	-10.1234
▁సంప్రదాయ	-10.1236
▁పెరిగింది	-10.1237
రువు	-10.1238
▁వెళ్తున్న	-10.1245
▁వో	-10.1249
▁సంతృప్తి	-10.1254
పించి	-10.1254
▁రాం	-10.1255
▁అడవి	-10.1255
▁చదివి	-10.1256
ేనా	-10.1256
రోజుల	-10.126
పాఠ	-10.1266
▁పనిచేయ	-10.1266
▁వేశారు	-10.1268
▁వర్మ	-10.1273
▁వ్యవహరించ	-10.1277
▁తప్పకుండా	-10.1283
▁ముంద	-10.1286
▁గ్రహ	-10.1286
▁ట్రాఫిక్	-10.1291
▁కేటీఆర్	-10.1291
▁వుండదు	-10.1294
▁అమ్మాయిని	-10.1294
▁పాలసీ	-10.1297
▁పౌర	-10.1301
▁ఉద్యోగులు	-10.1301
▁యాత్ర	-10.1302
▁చేపట్టారు	-10.1302
▁చూడండి	-10.1303
▁అధినేత	-10.1311
▁ఎన్నిక	-10.1313
ేందర్	-10.1319
▁సిద్ధమ	-10.1319
▁కమల	-10.1321
▁రాజీనామా	-10.1323
▁అన్నట్లు	-10.1327
▁తేల్చ	-10.1328
▁విక్రయ	-10.1331
▁రేవంత్	-10.1332
ంటున్నా	-10.1333
▁స్టీ	-10.1338
▁ఇక్కడి	-10.1341
▁నేర్ప	-10.1343
▁కృ	-10.1345
ఠా	-10.1346
▁కర్ణాటక	-10.1351
▁పెట్టె	-10.1355
ించాలి	-10.1356
▁కడప	-10.1363
▁కళ్ళల్లో	-10.1366
▁గుర్తించి	-10.1372
▁రుచి	-10.1379
▁చిత్రాన్ని	-10.1379
దుర్	-10.1382
▁అరుణ్	-10.1383
యము	-10.1385
▁సింహ	-10.1386
▁పద్ధతి	-10.1388
▁రాకుండా	-10.1389
ానిక	-10.139
▁రంగంలో	-10.1392
▁గంగ	-10.1392
నిపించింది	-10.1394
▁చిత్రానికి	-10.1395
▁రాష్ట్రం	-10.1396
▁అవుతా	-10.1399
పోతున్నాడు	-10.14
▁వదుల	-10.1404
▁పరిష్కరించ	-10.1406
▁అమాయక	-10.141
▁వ్యక్తిగత	-10.1411
▁ఎప్పటి	-10.1412
ముగా	-10.1419
▁మించి	-10.142
▁రాక్షస	-10.1421
▁సంగీతం	-10.1421
పోతున్నారు	-10.1421
▁వుంద	-10.1424
ెవరూ	-10.1433
▁అనంత	-10.1433
▁తడి	-10.1434
▁క్రీ	-10.1437
▁లోపలి	-10.144
తాళ	-10.1441
▁పుర	-10.1445
▁చలి	-10.1447
లున్నాయి	-10.1456
▁కార్మిక	-10.1461
▁పెట్టారు	-10.1464
ంద్	-10.1464
టివ్	-10.1465
▁మేనేజర్	-10.1467
పేరు	-10.1468
▁తొమ్మిది	-10.1469
▁వర్సిటీ	-10.1472
▁పరిశీలన	-10.1472
▁బాధ్యతలు	-10.1474
చేసింది	-10.1476
నీకు	-10.1482
▁తిరుగుతున్న	-10.1482
▁సంతోషంగా	-10.1483
▁విలువైన	-10.1485
▁ముద్ర	-10.1486
ుంటుంది	-10.1487
▁సరిగా	-10.149
▁ఇవన్నీ	-10.1493
▁ధరించ	-10.1495
టుగా	-10.1501
గాక	-10.1503
▁అనుభవించ	-10.1517
▁సరోజ	-10.1517
▁చావు	-10.1524
▁భావిస్తున్న	-10.1527
▁ఒంటరిగా	-10.1528
▁తప్పి	-10.1533
▁కుటుంబాల	-10.1537
▁నియమ	-10.1537
▁అప్రమత్త	-10.1538
▁జిల్లాల	-10.1558
▁కట్టి	-10.1561
▁వ్యక్త	-10.1565
▁స్పెషల్	-10.1566
ల్లోకి	-10.1566
▁రోజులుగా	-10.157
▁పరిశీలించ	-10.1574
▁గుణ	-10.1581
▁గారి	-10.1584
▁ఇంటర్వ్యూ	-10.1585
▁నియోజకవర్గ	-10.1587
▁అద్భుత	-10.1596
▁సహకరించ	-10.16
▁వ్యక్తిని	-10.1603
చార	-10.1608
ళ్ళూ	-10.1608
పులు	-10.1612
స్తాం	-10.1615
▁స్పందన	-10.1615
▁రెండ	-10.1617
▁సేవల	-10.1618
▁మరిచిపో	-10.1619
▁టీటీడీ	-10.1628
▁తెల్స	-10.1633
▁ఆదేశాల	-10.1648
చిత్ర	-10.1649
▁ఏడ్చ	-10.1652
▁మత్తు	-10.1656
▁కమిషన్	-10.1656
ర్ధం	-10.166
పాత	-10.1662
గుండ	-10.1663
▁అగ్నీ	-10.1667
వాళ్లు	-10.1667
▁అరిచాడు	-10.167
▁చేతిని	-10.1671
▁వాహనాల	-10.1671
▁బతిక	-10.1691
భాగ	-10.1692
రేం	-10.1693
వృ	-10.1695
▁వెధవ	-10.1697
వేత	-10.1704
ేసుకుని	-10.1706
▁చెంచా	-10.1707
▁7.	-10.1708
ర్యం	-10.1709
▁మూడ	-10.1714
డానికే	-10.1715
▁చెపుత	-10.1719
▁కంప	-10.1721
పట్నం	-10.1722
▁పౌ	-10.1722
▁సీఐ	-10.1722
▁విష్ణు	-10.1723
▁?	-10.1724
బొ	-10.1728
▁సూక్తము	-10.1733
▁వచ్చినా	-10.1737
పక్క	-10.1739
▁పరిస్థితుల్లో	-10.1744
▁ఆలస్యం	-10.1747
▁వసూలు	-10.1747
ుకోలేక	-10.1749
▁మహారాష్ట్ర	-10.1754
అలాగే	-10.1755
▁జాన్	-10.1757
▁దివ్య	-10.1758
▁చప్పుడు	-10.1768
▁వాదన	-10.177
మాత్రం	-10.1771
▁రవితేజ	-10.1771
▁వేశాడు	-10.1775
▁చుక్క	-10.1776
▁సమస్యల	-10.178
▁ఘన	-10.1791
▁లక్ష్మి	-10.1791
▁ధర్నా	-10.1792
పోవటం	-10.1793
లియా	-10.1794
మతి	-10.1794
ుకుంటు	-10.1795
ెప్పుడూ	-10.1795
▁పెట్టుబడి	-10.1796
▁వరల్డ్	-10.1797
▁అందువల్ల	-10.1798
ోత్సవం	-10.1799
ివి	-10.1803
▁శాస్త్రవేత్తలు	-10.1805
▁కుర్చీలో	-10.1809
▁కోటి	-10.1809
▁పురుషుల	-10.181
చ్చాడు	-10.1811
▁మణి	-10.1814
ట్లో	-10.1817
▁అందుబాటులోకి	-10.1821
స్త్ర	-10.1821
వుతున్న	-10.1828
▁అప్పటికి	-10.1829
▁ఫుల్	-10.183
▁నడిచి	-10.1834
▁పొర	-10.1838
▁కుమారుడు	-10.1839
▁అదో	-10.1841
▁స్వర్గ	-10.1843
▁చేయటం	-10.1846
హూ	-10.1847
ణ్ణ	-10.1854
▁మెదక్	-10.1857
▁ప్రసాద	-10.1862
జింగ్	-10.1865
▁అడిగిన	-10.1869
ుచున్నాను	-10.1872
వృద్ధ	-10.1875
▁ఉండాలని	-10.1875
▁గురు	-10.1877
ింటికి	-10.1877
మయం	-10.1879
▁అనుబంధ	-10.188
▁అంటున్న	-10.188
.......	-10.1881
ాలయం	-10.1881
▁మర్యాద	-10.1883
▁చేస్తున్నారని	-10.1884
▁ఆగింది	-10.1887
వద్దని	-10.1887
▁ప్రభు	-10.1894
▁చెల్ల	-10.1901
▁ముక్త	-10.1903
▁తీసుకుంటున్న	-10.1904
▁ఫ్ర	-10.1906
▁అధికారులకు	-10.1907
▁బదులు	-10.1909
▁శుభ్ర	-10.1914
▁కమల్	-10.1922
చాలా	-10.1924
▁ఇవ్వడం	-10.1924
▁ఉందన్నారు	-10.1929
ద్వారా	-10.1929
ఖ్	-10.193
▁పడిన	-10.1932
▁ఆర	-10.1934
▁దొరికి	-10.1934
▁60	-10.1937
▁కళా	-10.1937
ుచున్నాడు	-10.194
▁బీమా	-10.194
▁వస్తాను	-10.1942
▁నాగార్జున	-10.1942
నట్టుగా	-10.1942
వాడిని	-10.1946
▁జీవితాన్ని	-10.1947
▁క్లబ్	-10.1948
▁భయంగా	-10.1949
శంకర్	-10.1958
▁తీసుకొచ్చి	-10.1958
▁నాలుగో	-10.1959
▁పోయిన	-10.196
▁పరీక్షలు	-10.1962
▁చేరిన	-10.1962
ేమిటో	-10.1964
▁సేవలు	-10.1964
సలు	-10.197
▁అవమాన	-10.1972
▁విడిచి	-10.1973
▁వరుసగా	-10.1973
▁అదుపు	-10.1974
▁గుర్ర	-10.1974
▁సమాజ	-10.1976
▁అధికారం	-10.1977
in	-10.1977
నున్నట్టు	-10.1977
▁మరు	-10.198
▁నొప్పి	-10.1985
▁వాడికి	-10.1987
▁ఏమి	-10.1991
▁సత్యనారాయణ	-10.1992
▁టెక్	-10.1996
▁జ్ఞాన	-10.1999
కొచ్చిన	-10.2001
దారి	-10.2005
▁ఎడ్	-10.2018
▁బదిలీ	-10.2026
▁సిద్ధంగా	-10.2027
కుమారి	-10.2027
▁సరికొత్త	-10.2031
▁మోహ	-10.2031
▁కావచ్చు	-10.204
▁బహిరంగ	-10.2041
▁వివరాలను	-10.2041
▁బలి	-10.2041
▁ఆలోచించి	-10.2051
▁చూచ	-10.2053
▁ఇచ్చాడు	-10.2054
పడితే	-10.2058
▁పోషించ	-10.2058
▁వ్యాఖ్యానించారు	-10.2061
▁తెలుగులో	-10.2061
▁సమాధాన	-10.2062
▁వెలి	-10.2062
ాయన్నారు	-10.2064
▁చేరింది	-10.2077
▁తిట్ట	-10.2086
▁అధికారులను	-10.2087
▁బాత్	-10.2087
▁హ్యా	-10.2089
▁ఊరు	-10.209
▁అరు	-10.2092
▁పెదవుల	-10.2093
ందేమో	-10.2094
▁వ్యాప్తంగా	-10.2095
▁వన్డే	-10.2098
▁వస్తువు	-10.2098
▁వినియోగదారుల	-10.2102
▁కదిల	-10.2103
......"	-10.2107
▁కలుప	-10.2108
▁మిషన్	-10.211
▁కంట	-10.2115
▁పుణ్య	-10.2121
▁శోభ	-10.2123
▁నిలువ	-10.2128
▁వద్దు	-10.213
▁కేరళ	-10.213
▁నిరాశ	-10.2134
▁తొలగి	-10.2135
లింగ	-10.214
▁స్థానికులు	-10.2141
▁భ్రమ	-10.2144
▁చౌదరి	-10.2147
▁పోరాటం	-10.2147
▁తెరిచ	-10.2149
▁మొదటిసారి	-10.2151
▁ఇల్ల	-10.2153
▁బట్టలు	-10.2154
▁చిత్రాల	-10.2156
ినందుకు	-10.2157
▁పనిచేసే	-10.2159
▁విజ్ఞప్తి	-10.216
▁సరిహద్దు	-10.2165
▁గుర్త	-10.2166
ండ్ల	-10.2169
▁పోయ	-10.2169
స్తుండ	-10.217
▁సంబ	-10.217
▁మెడికల్	-10.217
ందున	-10.2171
▁మెట్ల	-10.2172
ౌట్	-10.2174
▁ఎక్కడా	-10.2174
▁వుందా	-10.2175
సరికి	-10.2175
▁మొండి	-10.2179
్ట్ర	-10.2179
ప్రియ	-10.2181
▁ఉన్నది	-10.2181
ిచ్చారు	-10.2182
▁చూశారు	-10.2186
▁వచ్చాక	-10.2187
▁తీసుకునే	-10.2187
▁డో	-10.2188
ఎక్కడ	-10.2188
పోతున్నాయి	-10.2189
▁అద్దె	-10.2196
▁తాళం	-10.2197
▁బలవంత	-10.2197
▁నిర్ణయ	-10.2199
▁ప్రో	-10.22
▁శత్రు	-10.2201
▁నలుగురి	-10.2209
▁రం	-10.2209
దర్శన	-10.2209
జయ	-10.2211
పొడి	-10.2214
▁పాద	-10.2219
▁ఆడవాళ్ళ	-10.222
▁బహుశా	-10.2221
ాలనుకుంటున్న	-10.2222
▁రాగ	-10.2223
▁గబగబా	-10.2225
▁ప్రాణాల	-10.2225
కొచ్చాడు	-10.2226
▁తీసే	-10.2229
▁కార్యాలయ	-10.2236
▁అటవీ	-10.2236
▁మూత	-10.224
▁శృతి	-10.2241
టేషన్	-10.2241
▁పాల్గొన్న	-10.2241
▁బండ	-10.2243
▁రహస్య	-10.2244
▁చేసుకోవాలి	-10.2245
సన	-10.2245
▁కార్యాలయం	-10.2246
▁అడిగే	-10.2248
84	-10.2251
▁చటుక్కున	-10.2251
మయ	-10.2251
▁తెరకెక్క	-10.2253
▁సాధన	-10.2253
ద్రా	-10.2254
▁సక్సెస్	-10.2256
వన్నీ	-10.2257
▁ట్రాన్స్	-10.2258
ఆమె	-10.226
▁అదనపు	-10.2261
వెల్	-10.2262
▁ఇటూ	-10.2263
▁చివరకు	-10.227
▁కోర్టులో	-10.2273
లేకుండా	-10.2278
▁మెగా	-10.228
చేతి	-10.2282
తోనూ	-10.2285
▁ప్రాంత	-10.2286
▁పెడతా	-10.2287
▁క్షమించ	-10.2287
▁శ్రీరామ	-10.2289
▁పాయింట్	-10.2292
▁గౌరవం	-10.2292
▁మేర	-10.2296
▁ఆస్పత్రిలో	-10.2296
ంగానే	-10.2302
▁కొబ్బరి	-10.2302
▁ఆకలి	-10.2303
టెడ్	-10.2306
▁దిగారు	-10.2307
స్థుల	-10.2311
▁ఆనంద్	-10.2311
ంటుంద	-10.2315
ుకుందాం	-10.2316
త్తా	-10.2319
▁స్కా	-10.232
▁రంగారెడ్డి	-10.232
▁పండుగ	-10.2326
▁జీపు	-10.2326
▁చిట్	-10.2327
▁సంఘాల	-10.2328
▁చావ	-10.2329
▁తేలిక	-10.2335
నన్ను	-10.2335
▁స్నేహితుల	-10.2341
మవుతున్న	-10.2343
▁గూ	-10.235
▁ఘనంగా	-10.2354
▁సర్ద	-10.2357
▁పొరపాటు	-10.236
▁నది	-10.2363
▁దేశవ్యాప్తంగా	-10.2363
▁నిమిషం	-10.2363
▁అనిల్	-10.2364
▁వన్	-10.2365
కాంత	-10.2366
ాన్నీ	-10.2367
▁కాపు	-10.2367
▁వెల్లడించింది	-10.2375
ాపురం	-10.2382
▁కేన్సర్	-10.2384
▁అలీ	-10.2385
▁చిన్నారి	-10.2385
పాలు	-10.2388
▁సెక్యూరిటీ	-10.2389
▁అందుకని	-10.2389
త్యం	-10.239
▁తలెత్తి	-10.2391
▁వుండేది	-10.2393
▁వల్లే	-10.2394
▁కలవ	-10.2401
▁దిక్కు	-10.2403
▁సుప్రీం	-10.2404
▁ఎదుర్కొ	-10.2405
▁శరీరంలో	-10.2407
▁పెరిగిన	-10.241
▁ఓసారి	-10.2412
▁ప్రభుత్వాన్ని	-10.2417
▁తీసుకుంది	-10.2421
ుడ్ని	-10.2422
▁నిప్పు	-10.2422
పోవడంతో	-10.2423
మహ	-10.2424
▁మండలి	-10.2424
▁నిశ్చయ	-10.2425
పాప	-10.2429
▁విజయవాడలో	-10.2429
▁రస	-10.243
▁ఇంతలో	-10.2431
యోగ	-10.2431
▁రాజీవ్	-10.2438
▁చిరునవ్వు	-10.244
▁ప్రవర్తన	-10.244
ప్రతి	-10.2441
▁ర్	-10.2442
▁బాద	-10.2445
భై	-10.2445
▁ఫే	-10.2448
-1	-10.2448
▁చనిపో	-10.245
▁ఫలితం	-10.245
▁టీచర్	-10.2451
వెంట	-10.2452
▁పుత్ర	-10.2453
▁రాష్ట్రంలోని	-10.2456
▁చేయాల్సి	-10.246
▁జరుగుతుంది	-10.2462
స్ట్ర	-10.2469
▁అడుగులు	-10.2474
▁లవ్	-10.2476
▁రక్ష	-10.2478
▁చెవుల	-10.248
నెల	-10.2484
▁విభాగం	-10.2487
▁మంచు	-10.2487
కూతుర	-10.249
య్యాక	-10.2492
▁అభిమానులు	-10.2492
▁బుద్ధి	-10.2496
▁ఇన్నింగ్స్	-10.2502
▁దాడులు	-10.2503
▁అంతకు	-10.2504
రించి	-10.2504
▁నేరుగా	-10.2507
▁ఇన్స్	-10.2508
దానికి	-10.251
▁స్థలం	-10.251
చేస్తా	-10.2512
▁పోగొట్ట	-10.2515
ేసే	-10.2515
▁మనుషులు	-10.2515
▁బెల్	-10.2517
▁పరిష్కారం	-10.2518
ంటావా	-10.2523
ాక్షి	-10.2525
▁పిలిచి	-10.2528
▁లాల్	-10.253
▁ముగించ	-10.2533
▁ఉత్పత్తుల	-10.2533
తీయ	-10.2537
▁నడిచ	-10.2538
కంఠ	-10.254
టల్	-10.2542
దాసు	-10.2545
▁తీసుకెళ్ళ	-10.2548
▁వదిలేసి	-10.2548
లేకపోతున్నా	-10.2553
▁కొన్న	-10.2559
▁మెరుపు	-10.256
▁మూడేళ్ల	-10.2566
▁రిక్షా	-10.2566
▁నాకూ	-10.2567
ల్లోనూ	-10.257
▁స్థానం	-10.2575
▁చూశాను	-10.2578
▁కార్యక్రమానికి	-10.258
▁వజ్ర	-10.2586
గలను	-10.2587
▁గిరి	-10.2592
▁ముట్ట	-10.2607
▁రాణి	-10.2611
▁అర్హత	-10.2612
▁ఆహారం	-10.2612
▁కరుణ	-10.2613
బై	-10.2615
రోజులు	-10.2617
▁లాక్	-10.2618
చుకో	-10.2623
▁ఆవేశం	-10.2623
▁జార	-10.2624
▁తాత్కాలిక	-10.2628
▁అమల	-10.2629
▁ప్రశ్నించ	-10.263
▁చక్క	-10.2631
రేమో	-10.2632
▁వార్తలు	-10.2632
▁సంభాషణ	-10.2633
▁పాల్పడ	-10.2633
పించింది	-10.2644
▁అధ్యయనం	-10.2647
▁దింప	-10.2648
▁మొన్న	-10.265
నేది	-10.2653
▁పురుగు	-10.2654
▁సమ్మె	-10.2654
▁ఆదేశాలు	-10.2655
▁బాట	-10.2659
▁ఆసుపత్రికి	-10.2662
▁వుంటాయి	-10.2665
ుచున్నది	-10.2667
▁కుదర	-10.2679
▁లాక్కు	-10.2679
▁ముప్ప	-10.2685
▁వెంకట్	-10.2691
▁నడిచాడు	-10.2691
నాన్న	-10.2692
టంలేదు	-10.2693
▁మధుర	-10.2694
కల్లా	-10.2696
కరంగా	-10.2698
రన్	-10.2699
ఇంక	-10.2699
▁వెంకయ్య	-10.27
పడ్డారు	-10.2701
▁ప్రకృతి	-10.2706
▁రిలీజ్	-10.2707
ందన్న	-10.2709
▁హిందీ	-10.2709
▁ప్రపంచం	-10.271
▁ఎన్న	-10.271
▁మనిషిని	-10.2711
▁సీబీఐ	-10.2712
ొచ్చిన	-10.2713
▁డాడీ	-10.2714
▁జరుగుతోంది	-10.2717
యత్	-10.2719
▁వెంక	-10.2719
▁వెక్కి	-10.2719
▁రండి	-10.2721
▁ట్విట్టర్	-10.2723
▁గుజరాత్	-10.2727
▁బ్రతుకు	-10.2728
▁ప్రకటించిన	-10.2729
స్తారని	-10.2731
▁స్పృహ	-10.2733
▁అడుగ	-10.2735
రాణి	-10.2736
▁అరిచ	-10.2739
▁అదృష్టం	-10.2741
▁ఆరోపణలు	-10.2741
▁గుమ్మం	-10.2747
▁శరత్	-10.2749
ఖ్య	-10.275
▁సొమ్ము	-10.2751
▁సర్కారు	-10.2753
▁సీసీ	-10.2756
▁ముఖంలో	-10.2758
▁కాకపోతే	-10.2763
▁కవి	-10.2764
▁కీర్తి	-10.2765
▁వుండటం	-10.2767
▁పొందిన	-10.277
▁ఎగిరి	-10.277
▁మర్	-10.2772
నన్నారు	-10.2777
కొచ్చే	-10.2784
మెంటు	-10.2787
క్టర్	-10.2795
▁నిందితుల	-10.2795
▁రాష్ట్రాల్లో	-10.2801
▁చేయలేదు	-10.2804
లమీద	-10.2805
ంటె	-10.2805
▁ఆప్	-10.2806
▁కనుక	-10.2812
▁అవకాశమ	-10.2813
▁అవసరాల	-10.2814
▁నెలలు	-10.2816
ళ్ళో	-10.2816
▁గే	-10.2817
▁యింట్లో	-10.2818
▁అవుతున్న	-10.2821
▁కాంతి	-10.2822
▁మరే	-10.2826
▁శంకర	-10.2828
▁భద్ర	-10.283
బడింది	-10.2833
▁అందుకున్న	-10.2835
▁ముఖంలోకి	-10.2836
ఎంత	-10.2837
▁ప్లాంట్	-10.2838
▁చెబితే	-10.284
▁వెళ్లే	-10.2846
ేమోనని	-10.2849
▁సహకారం	-10.2851
▁నిరూపించ	-10.2852
▁బుర్ర	-10.2853
▁చేస్తున్నట్లు	-10.2862
▁చెందారు	-10.2867
▁మండ	-10.287
▁రానున్న	-10.2872
▁కంపెనీలు	-10.2877
▁కఠిన	-10.2878
▁చెక్క	-10.2879
అన్న	-10.2879
▁సాధ్యం	-10.2879
▁బ్యాటింగ్	-10.2881
దై	-10.2888
ెవరి	-10.289
▁కూలి	-10.2906
లేకపోయాడు	-10.2907
లేవు	-10.2909
▁పర్యాటక	-10.291
▁తెల్లవార	-10.2911
▁బాగుంటుంద	-10.2913
▁నడుస్తున్న	-10.2915
▁ఎమ్మెల్యేలు	-10.2923
ున్నాడు	-10.2925
▁వాటర్	-10.2925
పూడి	-10.2927
▁తాలూకు	-10.2927
▁వెళ్ళిన	-10.2939
▁గిరిజన	-10.2942
ుకుంటోంది	-10.2942
▁జాతి	-10.2943
▁శేష	-10.2945
బోతోంది	-10.2945
▁అనుకుంటున్నా	-10.2945
▁పోస్టుల	-10.295
ిస్తున్నట్లు	-10.2954
▁రెవెన్యూ	-10.2959
▁సంతాన	-10.2963
పాయ	-10.2964
▁మరిన్ని	-10.2968
▁ఆర్మీ	-10.297
▁తగల	-10.2973
▁ఇప్పటికీ	-10.2974
▁వుంటాడు	-10.2977
▁తేల	-10.2986
▁అనుసరించ	-10.2987
▁భద్రతా	-10.2987
ంలోని	-10.2992
▁హాజరయ్యారు	-10.2992
▁ఆదేశించింది	-10.3001
▁గంగా	-10.3002
▁తీసుకుంటా	-10.3006
▁పలక	-10.3009
▁వ్యవహారాల	-10.301
▁నిశ్శబ్దం	-10.3011
నుకున్నా	-10.3014
▁చదువుతున్న	-10.3016
▁టాక్	-10.3016
రోజే	-10.3018
▁గోవింద	-10.3021
▁బాంబు	-10.3029
▁నిలిపి	-10.3033
త్రు	-10.3036
▁టు	-10.3037
▁చేయగల	-10.3042
▁వస్తుంద	-10.3042
▁పిలవ	-10.3043
పోతు	-10.3043
___	-10.3045
82.	-10.3045
▁టెలి	-10.3047
▁తాత	-10.3049
▁ప్రయత్నిస్తున్న	-10.3049
▁కూలీ	-10.305
▁శ్రీవారి	-10.3056
▁హస్త	-10.3056
▁బాగుండ	-10.3056
▁వాహన	-10.3061
స్థాయిలో	-10.3065
కోట	-10.3068
▁సంగత	-10.307
▁కడ	-10.3071
▁అనారోగ్య	-10.3074
▁మండిపడ్డారు	-10.3074
▁పిలుస్త	-10.3079
▁పసుపు	-10.308
▁వెన్న	-10.308
76.	-10.3081
▁కదిలి	-10.3082
▁పోసి	-10.3085
▁నియామక	-10.3085
▁మార్పులు	-10.3086
▁కనిపెట్ట	-10.309
తాయని	-10.3091
ుకొంది	-10.3091
విధంగా	-10.3099
▁గ్రీన్	-10.3101
లిక్	-10.3102
▁అప్పుల	-10.3102
▁రోడ్ల	-10.3106
▁గుండెల	-10.3111
▁సీపీఐ	-10.3113
▁పాస్	-10.3114
▁నాన్నా	-10.3115
▁పుట్టి	-10.3116
▁సౌందర్య	-10.3118
ుకుంటుంది	-10.3121
▁కూల్	-10.3128
▁మృతిచెంద	-10.3129
▁గెలిచి	-10.3129
▁యోగ	-10.3131
ుకోవాల్సి	-10.3132
▁ఆకర్షణ	-10.3135
▁నిజామాబాద్	-10.3135
▁చక్కగా	-10.3135
▁వాన	-10.3145
66.	-10.3145
▁డిజైన్	-10.3146
▁ర్యాలీ	-10.3146
▁నకిలీ	-10.3146
▁డోర్	-10.3147
క్కర్లేదు	-10.3148
84.	-10.3152
▁సంవత్సరాలు	-10.3154
▁గ్రామాల	-10.3159
చిత	-10.3162
లేడు	-10.3162
▁అశోక్	-10.3162
▁లలిత	-10.3163
▁జైట్లీ	-10.3168
74.	-10.3169
▁యే	-10.3172
నంటే	-10.3173
▁దాన	-10.3174
▁చర్చలు	-10.3176
▁కట్	-10.3177
సాగర్	-10.3179
▁దొర	-10.3181
▁చిత్తూరు	-10.3182
▁ఆశ్రయించ	-10.3184
▁కల్ప	-10.3186
▁గడప	-10.3188
యందు	-10.3189
▁ఫోర్	-10.3208
▁వెయ్య	-10.3208
▁పెంపు	-10.3215
▁కనక	-10.3218
▁కబుర్లు	-10.3221
▁కరువు	-10.3222
▁రచన	-10.3223
▁అత్యధిక	-10.3224
శివ	-10.3224
▁రాజేంద్ర	-10.3229
కై	-10.323
ేస్తూ	-10.3231
62.	-10.3232
▁అమృత	-10.3236
▁పాతిక	-10.3237
కూడదని	-10.3237
▁దిగులు	-10.324
▁స్వరూప	-10.3245
▁ముచ్చట	-10.3245
▁జానకి	-10.3248
▁సుమ	-10.3249
ంచె	-10.3251
▁లుక్	-10.3255
▁బ్యూటీ	-10.3257
చూపు	-10.3259
▁దుఃఖం	-10.326
ాలలో	-10.3261
▁శాంత	-10.3261
▁మాట్లాడి	-10.3266
స్తి	-10.3266
▁ఉమ్మడి	-10.3269
▁బండి	-10.3272
▁ఇష్టపడ	-10.3272
▁పదిహేను	-10.3274
▁కుట్ర	-10.3277
▁అవతల	-10.3281
▁వణికి	-10.3281
గడ్డ	-10.3281
▁కన్పించ	-10.3282
ములందు	-10.3283
▁కంగారు	-10.3285
▁ఇంజనీరింగ్	-10.3285
▁ఒకటే	-10.3286
▁సెక్రటరీ	-10.3291
▁1,	-10.3295
▁టైం	-10.3297
కరం	-10.3308
▁చాట	-10.3312
▁మాట్లాడే	-10.3317
64.	-10.3317
▁అడ్డం	-10.3318
72.	-10.3321
▁తుడుచ	-10.3324
▁టిక్కెట్	-10.3325
డియా	-10.3325
▁నొక్క	-10.3328
▁బ్రతక	-10.3331
▁హెచ్చరించ	-10.3334
▁వెల్లడించ	-10.3339
▁తెలిస్తే	-10.3339
క్యూ	-10.3341
▁పరిశ్రమల	-10.3343
▁హృదయం	-10.3349
▁వాలి	-10.3349
▁ఆమోదం	-10.3352
▁చూస్తున్నారు	-10.3356
▁వస్తుందని	-10.3359
▁ఇటువంటి	-10.3359
▁కూర	-10.3361
▁తెలియకుండా	-10.3366
▁బాధగా	-10.3368
▁నౌక	-10.3368
పెడితే	-10.3371
▁రౌడీ	-10.3375
94.	-10.3381
▁అంశంపై	-10.3381
చేశా	-10.3388
లిప్	-10.3391
▁ఇంగ్లండ్	-10.3392
▁టీమిండియా	-10.3392
▁మేలు	-10.3393
▁త్ర	-10.3394
▁అంతలో	-10.3396
▁రాజ్యసభ	-10.3397
మంత్రి	-10.3397
▁రోజున	-10.3398
▁స్ఫూర్తి	-10.3398
▁మేఘ	-10.3401
▁పేరిట	-10.3405
▁సందర్భ	-10.3406
92.	-10.3408
▁త్రినాధ్	-10.3415
78.	-10.342
ఒక్క	-10.342
▁బలవంతంగా	-10.3422
▁ఉపయోగపడ	-10.3423
ేమిట	-10.3425
▁ముడి	-10.3426
ిచ్చిన	-10.3426
▁ఆదిలాబాద్	-10.3427
▁నిలబడ్డ	-10.3428
▁మేడమ్	-10.3436
▁నిర్మాణానికి	-10.3438
▁జపాన్	-10.3438
యీ	-10.3439
▁అందాల	-10.3441
▁నాథ్	-10.3441
నున్నాయి	-10.3444
▁నెలలో	-10.3444
▁కాళ్ళు	-10.3444
▁ప్రకటనలో	-10.3446
▁పత్తి	-10.3447
▁నిలబెట్ట	-10.345
పైకి	-10.3451
▁చిన్నారుల	-10.3452
ేశ్వరరావు	-10.3453
కముందే	-10.3456
▁ప్రైవేట్	-10.3461
ెను	-10.3462
▁భగవంత	-10.3467
కింద	-10.347
▁లత	-10.3471
▁బార్	-10.3472
▁పాల్పడ్డ	-10.3477
▁దృష్టికి	-10.348
▁యూపీ	-10.3483
86.	-10.3488
▁ఉష	-10.349
▁దిశగా	-10.349
▁గారు	-10.3497
పడ్డాయి	-10.3498
లేకపోయా	-10.3499
గిలి	-10.3501
▁టౌన్	-10.3501
▁చౌ	-10.3501
▁పరిచయ	-10.3502
▁యింటి	-10.3503
▁జూనియర్	-10.3507
ట్రిక్	-10.3509
▁తక్కువగా	-10.3511
▁కోర్సు	-10.3513
▁ఏకంగా	-10.3518
లేం	-10.3519
▁పెరగ	-10.3519
స్కో	-10.3524
▁శ్రీనివాస	-10.3525
▁ఆరంభ	-10.3527
సాధ్య	-10.3529
▁జయంతి	-10.353
▁ఉపయోగ	-10.3538
▁వస్తువుల	-10.3541
▁సమంత	-10.3543
ష్ణ	-10.3546
▁నాటక	-10.3547
▁మాత్ర	-10.355
ేసుకు	-10.3552
▁చెయ్యాలి	-10.3552
▁వేణు	-10.3555
నీరు	-10.3555
▁పరిశీలించి	-10.3558
ుందని	-10.356
▁వాహనం	-10.3561
▁విచార	-10.3569
▁ధరలు	-10.3569
దండ	-10.3571
నాయక్	-10.3572
ుడై	-10.3573
▁ఉండేది	-10.3576
పాత్ర	-10.3577
ారన్న	-10.3579
▁మిల్	-10.3582
▁డబుల్	-10.3585
▁చెప్తా	-10.3585
▁సాధి	-10.3588
కరించ	-10.3591
▁సైకిల్	-10.3594
▁లాభ	-10.3598
షధ	-10.3599
▁కుర్చీ	-10.3601
మవుతుంది	-10.3601
▁నిర్ణయించారు	-10.3607
క్కో	-10.3608
ీకరించ	-10.361
పాలెం	-10.3614
ాల్సింది	-10.3618
▁ప్రయత్నాలు	-10.3618
థ్	-10.3618
▁మౌ	-10.3619
▁కావు	-10.3622
▁నియంత్రణ	-10.3622
▁అయ్యారు	-10.3623
▁మెన్	-10.3629
▁సంఖ్యలో	-10.3631
పంచ	-10.3633
▁సాహిత్య	-10.3634
▁ఎడమ	-10.3637
▁లోంచి	-10.3637
దారులు	-10.3638
▁హరీశ్	-10.364
▁సందర్శించ	-10.3643
▁ఆదర్శ	-10.3643
▁నిశ్శబ్దంగా	-10.3649
▁కలిస	-10.3652
▁రాజీ	-10.3652
▁వసంత	-10.3656
దనం	-10.3666
▁వివేక్	-10.3669
▁నటుడు	-10.3669
▁అక్షర	-10.3669
▁ముంచ	-10.367
▁సంచలన	-10.3673
▁పరిశీలించారు	-10.3674
▁క్రమంగా	-10.3675
▁తుది	-10.3675
68.	-10.3677
▁దాడుల	-10.3677
▁యిష్టం	-10.3679
▁అవతలి	-10.368
▁పార్కు	-10.3683
▁బైట	-10.3686
▁ఓటమి	-10.3687
▁ఎప్పుడ	-10.3693
▁ధోనీ	-10.3698
▁ఇంట	-10.37
▁పశు	-10.3701
మ్మాయి	-10.3702
మంచి	-10.3707
▁సుధాకర్	-10.3716
▁దక్కించ	-10.3719
▁ఉండడం	-10.3719
▁ప్రచార	-10.372
▁తప్పించుకు	-10.372
▁పేట	-10.3721
చెయ్య	-10.3721
▁ఖా	-10.3722
▁ప్రతినిధులు	-10.3725
▁దశలో	-10.3727
▁ఆదాయ	-10.3729
▁కార్యకలాపాల	-10.3733
లోపల	-10.3737
▁పెడుతున్న	-10.375
▁అధికారులతో	-10.3758
కేషన్	-10.376
ొప్ప	-10.3762
▁డ్యూటీ	-10.3763
▁అటువంటి	-10.3764
▁దుర్గ	-10.3764
బోయింది	-10.3766
▁సూట్	-10.3776
▁స్వాగత	-10.3776
చాడు	-10.3778
▁ధోరణి	-10.378
▁చక్ర	-10.3783
▁తిప్పి	-10.3784
▁ఇందిర	-10.3784
▁సందడి	-10.3787
▁ఘటనలో	-10.3789
▁సురేష్	-10.3792
▁రమేష్	-10.3792
▁వేస్తున్న	-10.3795
▁కారణాల	-10.3799
రేజ్	-10.3801
ాధికారి	-10.3804
▁వెల్	-10.3805
▁రెండవ	-10.3805
▁నేతృత్వంలో	-10.381
▁సూటిగా	-10.381
▁వాసు	-10.3814
▁తొలుత	-10.3816
▁తేలి	-10.3817
▁వినబడ	-10.3817
▁పాటలు	-10.3821
▁పార్లమెంటు	-10.3828
హారం	-10.3828
▁ఇలాగే	-10.3828
▁పరిస్థితులు	-10.3828
▁కార్యకర్తలు	-10.3828
▁సమర్థ	-10.3836
▁ఆరోజు	-10.3838
చ్ఛ	-10.384
▁సంత	-10.3841
▁తీసుకోవాలి	-10.3841
▁డాన్	-10.3842
▁ఒకేసారి	-10.3844
▁పీల్చ	-10.3845
▁కరిగి	-10.3845
▁చేస్తుంద	-10.3846
టెన్	-10.3846
▁ఆశ్రమ	-10.3846
▁ఇంకే	-10.3849
ేయాలి	-10.385
భూ	-10.3853
▁డీజీపీ	-10.3857
▁ఒక్కటే	-10.3858
▁కోస	-10.386
వృత్త	-10.386
▁అక్షరాల	-10.386
▁ఎవరికి	-10.3864
▁ఇన్ని	-10.3867
ాంశ	-10.3869
▁బెదిరించ	-10.3869
▁జడ్జి	-10.3869
▁తలెత్త	-10.387
▁భావం	-10.3872
చ్చిన	-10.3874
▁దిగిన	-10.388
▁ఎంటర్	-10.3884
▁జ్వరం	-10.3886
▁థియేటర్	-10.3887
▁వికెట్లు	-10.3887
▁కార్యక్రమాన్ని	-10.3893
▁చేసుకుంటున్న	-10.3897
▁ఇసుక	-10.39
▁న్యాయమూర్తి	-10.3901
ొత్త	-10.3903
▁మోడల్	-10.3906
▁పాయింట్ల	-10.3908
88.	-10.3909
ప్రేమ	-10.3911
▁చైర్	-10.3916
లిన్	-10.3919
▁తగిలి	-10.3921
▁అల్లరి	-10.3923
పోతాయి	-10.3927
▁ఆంధ్ర	-10.3929
▁శాసనసభ	-10.3929
▁చర్యల	-10.393
▁అనుకుంటూ	-10.3932
▁లోనూ	-10.3933
▁సంప్రదించ	-10.3935
పట్టి	-10.3943
ేటప్పుడు	-10.3946
ెడ్	-10.3948
బోతూ	-10.395
▁నిష్	-10.395
టార్	-10.395
ఇదిగో	-10.3951
▁శ్రీలంక	-10.3953
▁పుచ్చ	-10.3955
▁పట్టుకొని	-10.3956
▁ఐశ్వర్య	-10.3959
▁మీదకు	-10.396
▁అరవింద్	-10.3965
▁2014	-10.3968
▁దంపతుల	-10.3969
▁పర్వత	-10.3972
▁కొందరి	-10.3977
▁ఆలోచనల	-10.3979
▁బలహీన	-10.3981
▁లాయర్	-10.3982
▁పబ్లిక్	-10.3983
▁సకల	-10.3984
సాయి	-10.3988
▁నీళ్ళ	-10.3989
▁కాదన	-10.399
▁శ్రద్ధ	-10.3995
▁కనిపిస్తోంది	-10.3995
▁అంతరిక్ష	-10.3995
▁అదృష్ట	-10.3997
▁హాస్టల్	-10.4001
వాడ్ని	-10.4002
▁పరిశీలి	-10.4004
స్తోన్న	-10.4004
▁దేవతలు	-10.4007
▁ఏపీలో	-10.4007
▁తవ్వ	-10.4008
▁విమర్శ	-10.4011
▁బామ్మ	-10.4012
▁బర్	-10.4023
▁చెమట	-10.4023
నుకున్న	-10.4024
ేశాను	-10.4024
▁స్కూలు	-10.4025
▁నైట్	-10.403
▁హాట్	-10.4035
▁మూసి	-10.4036
▁తీర్చిదిద్ద	-10.4037
▁విరుచుకు	-10.404
▁భవన	-10.4044
▁నేషనల్	-10.4045
స్తంభ	-10.4045
▁పెరుగ	-10.4047
లెండి	-10.4047
▁చేయకుండా	-10.4048
▁క్షేత్ర	-10.4049
▁దర్	-10.4054
▁సరదాగా	-10.4056
▁గట్టి	-10.4056
▁వర్ణ	-10.4058
▁నాకే	-10.406
▁ఫిల్మ్	-10.4062
చుకుని	-10.4064
▁కావాలంటే	-10.4065
విధ	-10.4065
▁సత్యం	-10.4066
▁వ్ర	-10.4067
నపుడు	-10.4069
▁చేయడంతో	-10.4071
▁అందం	-10.4075
▁చేసినట్టు	-10.4075
▁ఫలితాలు	-10.4077
▁హాల్లో	-10.4081
▁యాభై	-10.4082
▁తెలుస్తుంది	-10.4087
▁పాల్గొంట	-10.4092
మందు	-10.4093
▁వాటికి	-10.4094
▁కళ్లు	-10.4098
వుంటే	-10.4099
▁ఏమాత్రం	-10.41
▁భావిస్తున్నారు	-10.4102
నిండా	-10.4105
▁లూ	-10.4105
కార్య	-10.4107
కపోవచ్చు	-10.4107
ాచార్య	-10.4108
▁గ్యా	-10.4109
దురుగా	-10.4112
▁సొంతం	-10.4118
డై	-10.4118
▁కండ	-10.4125
▁పలకరించ	-10.4126
తల్లి	-10.4127
▁కనిపించే	-10.4128
▁వృత్తి	-10.4136
▁గర్వ	-10.4139
▁అవును	-10.414
▁పశ్చిమ	-10.4141
▁అపురూప	-10.4141
▁ఉగ్రవాదుల	-10.4142
▁జబ్బు	-10.4143
▁ఆస్పత్రి	-10.4143
▁సాధించింది	-10.4147
▁ఉంచి	-10.4147
▁చూడాలని	-10.4147
పాట	-10.4149
వంతంగా	-10.4151
ుతున్నారని	-10.4151
▁మండలంలో	-10.4152
▁తీసిన	-10.4153
▁మెట్రో	-10.4153
ర్భ	-10.4157
▁అసిస్టెంట్	-10.4159
▁వేర్	-10.4161
్యాన్ని	-10.4164
దేవ్	-10.4165
▁బ్రేక్	-10.4166
▁రుణ	-10.4169
▁పోర్	-10.4176
▁అడిగితే	-10.4176
▁నగరంలోని	-10.4177
శక్తుల	-10.4182
▁అభ్యంతరం	-10.4184
▁''	-10.4189
▁/	-10.4189
▁బ్రాహ్మణ	-10.419
▁ఏర్పడింది	-10.4192
▁పూజలు	-10.4194
f	-10.4196
▁తేదీన	-10.4196
▁పడ్డాడు	-10.4198
ద్దర	-10.4199
ంబు	-10.4199
▁హడావుడి	-10.4202
▁ప్రియాంక	-10.4203
▁అనా	-10.4203
▁క్లాస్	-10.4205
నట్లయింది	-10.4217
▁రెడ్	-10.4222
దశ	-10.4226
▁ప్రభాకర్	-10.4227
▁విమర్శలు	-10.4233
▁పదార్థాల	-10.4234
▁ఎత్తున	-10.4234
మీకు	-10.4234
▁ఆపి	-10.4235
ుకొన	-10.4236
పోయాక	-10.4239
▁ఇంజనీర్	-10.4239
▁కంప్యూటర్	-10.4239
▁నెగ్గ	-10.424
▁మృత	-10.4241
▁అంశ	-10.4242
▁పట్టుదల	-10.4244
▁జంతువు	-10.4246
▁కల్యాణ	-10.4247
ులైన	-10.4261
▁అంజ	-10.4263
▁ఊళ్ళో	-10.4271
▁లోక్	-10.4273
పత్రిక	-10.4275
▁నగల	-10.4277
కోట్ల	-10.4277
లెక్	-10.4278
▁వూహించ	-10.4283
▁డైరెక్ట	-10.4284
▁భవన్	-10.4286
పండు	-10.4288
ందంటే	-10.4289
▁మీదుగా	-10.4291
▁మోటార్	-10.4291
రణ్య	-10.4294
▁ప్రక్కన	-10.4294
▁హక్కుల	-10.4297
▁కంగారుగా	-10.4299
▁నంది	-10.43
▁వచ్చేసరికి	-10.43
▁అనుగుణంగా	-10.4301
▁పోలవరం	-10.4301
▁అంతగా	-10.4302
చిన్న	-10.4303
▁తానే	-10.4309
▁చూసాడు	-10.431
ాంతర	-10.4312
▁రెండూ	-10.4314
▁వదిన	-10.4314
▁తెప్పించ	-10.4314
▁రంగంలోకి	-10.4317
▁శంకుస్థాపన	-10.432
▁ప్రయోజనం	-10.4326
▁టెన్షన్	-10.4326
ఇంకా	-10.4327
▁వుండగా	-10.4328
రండి	-10.4329
▁సందేహ	-10.4332
▁అసహనం	-10.4332
n	-10.4333
▁ఏడవ	-10.4337
▁చేసుకోవడం	-10.434
▁గోల్	-10.4345
▁మతి	-10.4351
▁పార్వతి	-10.4353
▁పేజీ	-10.4353
▁భిన్న	-10.4358
▁తేలింది	-10.4358
ంటికి	-10.4364
▁అంకిత	-10.4367
ేషన	-10.4369
యింగ్	-10.4372
▁యోగా	-10.4372
▁పోనీ	-10.4374
▁యజ్ఞము	-10.4378
▁పాదాల	-10.4379
▁కశ్మీర్	-10.4382
▁వెలువడ	-10.4385
▁ప్రె	-10.4393
▁నివాస	-10.4396
▁సెక్షన్	-10.4398
ధృత	-10.4401
బోధ	-10.4401
▁షెడ్యూల్	-10.4407
▁భార్గవ	-10.4407
▁రౌండ్	-10.4407
ెళ్త	-10.441
▁ఓటు	-10.441
▁అమర్చ	-10.4415
బోయి	-10.4415
▁లైఫ్	-10.4419
▁కేసి	-10.4422
▁కొనసాగించ	-10.4424
▁రాముడు	-10.4425
వేత్త	-10.4429
▁అంతలోనే	-10.4431
▁ఈరోజు	-10.4433
తరం	-10.4434
▁పోల్చ	-10.4435
మయ్యే	-10.4438
లొ	-10.4444
ట్రీ	-10.4447
▁తీర్మాన	-10.4451
వర్తి	-10.4455
▁తొక్క	-10.4459
స్తున్నట్లు	-10.4461
▁పిల్లలకు	-10.4463
వారే	-10.4464
▁మిస్టర్	-10.4465
▁అసోసియేషన్	-10.447
▁ముగ్గురూ	-10.447
లంతా	-10.4471
పోతున్నా	-10.4473
స్తుంటారు	-10.4475
ుతున్నట్లు	-10.448
▁దుర్	-10.448
▁చూస్తోంది	-10.4481
▁కల్యాణ్	-10.4488
▁పట్టించ	-10.4489
దేమో	-10.4491
▁సెక్	-10.4493
▁విచారించ	-10.4493
▁కష్టాలు	-10.4495
▁సుజాత	-10.4497
▁ఉచిత	-10.4499
▁సార్లు	-10.45
▁చేసుకొని	-10.4501
వైన	-10.4505
▁కిడ్నాప్	-10.4508
▁అజయ్	-10.4509
▁బాలకృష్ణ	-10.4512
▁స్థానాల	-10.4512
▁ఫ్యాక్టరీ	-10.4515
▁తూర్పు	-10.4515
▁పిలిచ	-10.4516
▁హేమ	-10.4519
▁లెటర్	-10.4523
▁ఇండస్ట్రీ	-10.4527
సెట్	-10.4528
▁సన్నగా	-10.453
▁దైవ	-10.4533
▁పేర్లు	-10.4537
పోవాల	-10.4537
▁నాయకుల	-10.454
▁భువన	-10.454
పెద్ద	-10.4542
▁లంక	-10.4545
▁సీటు	-10.4547
▁తిని	-10.455
స్థితి	-10.4552
మవు	-10.4556
▁భరత్	-10.4556
▁గుర్తుకు	-10.4564
▁నిజాయితీ	-10.4566
▁ప్రారంభించిన	-10.4567
▁శాశ్వత	-10.4567
▁పార్టీకి	-10.4569
▁ఈమె	-10.457
▁అభిమానం	-10.4571
▁ఉందా	-10.4571
▁కదలిక	-10.4571
▁క్రికెటర్	-10.4572
ుదురు	-10.4573
▁భవిష్యత్తు	-10.4573
▁ప్రజలను	-10.4575
▁ప్రెసిడెంట్	-10.4578
▁యివ్వ	-10.4587
▁నిలబడ్డాడు	-10.459
▁వెన్నెల	-10.4595
▁ఫలితాల	-10.4595
వారిని	-10.4596
▁భవనం	-10.4598
▁సంచలనం	-10.4599
శ్ర	-10.46
▁ఉత్సాహంగా	-10.4601
▁అసలే	-10.4606
భాష	-10.461
కథ	-10.4612
▁చూద్దాం	-10.4612
▁చూచి	-10.4615
▁మావోయిస్టు	-10.4617
▁సభ్య	-10.462
▁ఆర్డర్	-10.462
▁తగినంత	-10.4622
ధర	-10.4622
▁చేశార	-10.4623
▁చిన్నగా	-10.4627
జిత	-10.4629
▁విశ్వవిద్యాలయ	-10.463
▁ఇందుకోసం	-10.463
▁ఫ్రా	-10.4634
▁ఏమో	-10.4637
▁150	-10.4641
▁తదుపరి	-10.4643
▁భావన	-10.4644
▁జరిగితే	-10.4645
▁పనులను	-10.4646
▁వివాదం	-10.4647
▁అయన	-10.4651
▁నిర్మిస్తున్న	-10.4652
▁పోస్టర్	-10.4655
▁పొలం	-10.4656
▁ప్రతిభ	-10.4664
▁నిల్వ	-10.4665
▁గూడ	-10.4666
▁వ్యవధి	-10.4668
▁చరణ్	-10.4669
విజయ	-10.4671
▁0	-10.4673
పిస్తోంది	-10.4675
రాదు	-10.4678
▁దర్శకత్వం	-10.4678
ఆయన	-10.4681
▁కలపాలి	-10.4681
▁ఏసీబీ	-10.4683
▁ఆగిపోయింది	-10.4684
▁నల్లగొండ	-10.4688
రాష్ట్ర	-10.469
▁80	-10.469
యింట్	-10.4692
పెడ	-10.4695
వెళ్ళి	-10.4696
▁లేదన్నారు	-10.4699
▁దర్శించ	-10.4701
ేముంది	-10.4702
▁ముగిసిన	-10.4703
▁నిల్చ	-10.4703
▁విభాగంలో	-10.4703
▁తనూ	-10.4704
▁బట్ట	-10.4706
▁ఉద్యమం	-10.4707
▁చెల్లి	-10.4712
వలసింది	-10.4714
▁మలుపు	-10.4717
▁బ్యాంకుల	-10.4718
▁తేలిగ్గా	-10.4721
దూరం	-10.4721
▁పావు	-10.4721
▁మరల	-10.4729
▁ఒకప్పుడు	-10.473
తుండ	-10.4733
చేస్తూ	-10.4735
▁పరిధిలోని	-10.4739
లియన్	-10.4741
▁రంగం	-10.4745
▁చేశాడ	-10.4746
▁అట్టి	-10.4752
▁బాహుబలి	-10.4753
▁ఏపీకి	-10.4753
▁రేటు	-10.4757
▁మృదుల	-10.4759
గుంట	-10.4765
▁ప్రశ్నలు	-10.4767
▁దేహ	-10.4768
▁మాటల్లో	-10.477
▁వెల	-10.4771
▁కానుక	-10.4774
దృ	-10.4775
▁రోహిత్	-10.4779
▁జాబితాలో	-10.4779
▁తెలుసుకోవాల	-10.4783
▁బల్ల	-10.4784
▁ఏటా	-10.4785
▁హెచ్చరిక	-10.4785
▁నోట్లో	-10.479
▁పెళ్ల	-10.4791
పరిచి	-10.4791
▁పారిశ్రామిక	-10.4792
▁అవు	-10.4793
▁మెచ్చ	-10.4795
సేవ	-10.4795
▁రామచంద్ర	-10.4796
మవుతోంది	-10.4796
▁ఇంగ్లీషు	-10.4798
▁ముగ్గురి	-10.4798
▁బతుకు	-10.4799
▁హిమ	-10.4805
ేస్తే	-10.4806
an	-10.4812
▁దీర్ఘ	-10.4818
▁ప్రమాణ	-10.4824
ుకుంటాను	-10.4824
▁లేప	-10.4824
▁చప్పున	-10.4824
ానందం	-10.4825
▁చేస్తాం	-10.4827
▁అద్దం	-10.483
▁జరిగాయి	-10.4831
వాణి	-10.4832
▁వికాస్	-10.4832
▁రావాలి	-10.4834
భూషణ	-10.4835
▁మనకి	-10.4838
తువు	-10.4838
ిక్కడ	-10.4845
జల్	-10.4851
▁స్వప్న	-10.4853
▁వేసుకున్న	-10.4854
▁విరిగి	-10.4855
న్యూ	-10.4855
▁నిమిత్తం	-10.4864
▁స్వల్ప	-10.4864
▁మరుక్షణం	-10.4864
▁పర్యటించ	-10.4865
టీసీ	-10.4868
ద్వా	-10.4869
▁మనీ	-10.4869
▁ఉదయ్	-10.487
ాంతం	-10.4873
▁చెల్లింపు	-10.4873
దేవత	-10.4873
▁స్నేహం	-10.4874
▁మీటర్ల	-10.4876
▁గొంతులో	-10.4877
▁ఖైదీ	-10.4877
▁రాజ్యాంగ	-10.4877
▁వచ్చేసింది	-10.4878
▁తీసుకోవడం	-10.4879
▁మండి	-10.4881
▁కై	-10.4882
ుచున్నాము	-10.4888
▁కాల్చ	-10.4888
▁ఫ్రీ	-10.4894
వుండ	-10.4896
▁పెరిగ	-10.49
▁నిరంతర	-10.4904
▁హాజరు	-10.4905
▁టీమ్	-10.491
▁టెస్టు	-10.4913
పుల్	-10.4913
చుకుంటూ	-10.492
▁అఖిల్	-10.4922
ఫార్మ	-10.4923
▁ముఠా	-10.4924
▁షీ	-10.493
▁దేవి	-10.493
ొచ్చా	-10.4931
వంటి	-10.4934
▁దొరుకుత	-10.4945
▁పుస్తకాలు	-10.4946
▁చెప్పకుండా	-10.4947
▁చెర	-10.495
....?	-10.4952
▁ప్రై	-10.4955
▁పెను	-10.496
▁దుఃఖ	-10.496
▁చేరుకుని	-10.4962
▁పెన్	-10.4965
▁చేశామని	-10.4965
▁వంగి	-10.4974
▁కోరుతూ	-10.4976
పల్లిలో	-10.4976
▁బతక	-10.4979
రమ్మ	-10.4979
▁చేత్తో	-10.4983
▁సీన్	-10.4984
మయ్యాయి	-10.4986
▁బ్రిటన్	-10.499
ద్రోహ	-10.4991
ొస్తా	-10.4993
▁శర	-10.4997
▁చెప్పినా	-10.4998
▁గుండెల్లో	-10.4999
ముఖం	-10.4999
ాభివృద్ధి	-10.5
▁విక్రమ్	-10.5003
హె	-10.5004
డుతోంది	-10.5005
ున్నాయని	-10.5008
ెవర	-10.5009
▁ఉమ	-10.5009
▁ఉగ్ర	-10.5013
▁రిషి	-10.5013
▁ఉలిక్కిపడి	-10.5016
▁పంజాబ్	-10.5016
▁వాణిజ్య	-10.5016
ఐసీ	-10.5018
▁యోగి	-10.5018
▁సమీపంలోని	-10.5018
▁ఇతరుల	-10.5019
▁ధర్మాసనం	-10.5023
▁ఆధార్	-10.5024
▁చెప్పాలని	-10.5029
▁ప్రశ్నకు	-10.5032
▁గదుల	-10.5036
అసలు	-10.5043
▁కూర్చున్నారు	-10.5045
▁కామెంట్	-10.5047
▁ఉష్ణోగ్రత	-10.505
ఇక్కడ	-10.5053
▁చూపులు	-10.5056
▁సభ్యుడు	-10.5058
▁అభివృద్ధికి	-10.5063
▁పడుతుంది	-10.5064
▁స్వర్ణ	-10.5064
▁ప్రాధాన్యం	-10.5065
త్వాన్ని	-10.5067
▁మంత్రుల	-10.5078
▁యింకా	-10.5078
▁శబ్ద	-10.508
▁పరిసరాల	-10.5086
చ్చె	-10.5086
▁పోరు	-10.5091
▁ఇంతకీ	-10.5092
▁సునీత	-10.5093
▁డాలర్ల	-10.5093
▁సంసార	-10.5099
▁అడ్డంగా	-10.5102
▁పిండి	-10.5103
▁రాశారు	-10.5105
▁లేచాడు	-10.5105
▁పాటించ	-10.5106
▁పాడు	-10.5107
ంబర	-10.5114
▁సల్మాన్	-10.5117
▁వేసవి	-10.5117
▁మిగిల	-10.5118
▁బుగ్గ	-10.5119
పోలేదు	-10.5119
▁ఒకరోజు	-10.5123
▁వాళ్ళకు	-10.5124
గుణ	-10.5129
వెన్	-10.5134
▁కార్యకర్తల	-10.5137
▁ఫోటోలు	-10.5144
▁అంకుల్	-10.5149
ెందుక	-10.5154
▁దోష	-10.5155
▁గేమ్	-10.5156
▁విశ్రాంతి	-10.5157
ఇప్పుడ	-10.5158
▁మాట్లాడుతున్నా	-10.5165
▁మాట్లాడుతున్న	-10.5168
▁ప్రారంభించింది	-10.5168
▁లభించింది	-10.5173
నట్టే	-10.5174
▁తీసుకున్నాడు	-10.5177
▁పెట్టుబడులు	-10.5182
▁నంద	-10.5182
▁చేసుకోవాలని	-10.5182
▁నిర్వ	-10.5184
▁అదృశ్య	-10.5185
▁డౌన్	-10.5185
▁భోజన	-10.5186
▁సంవత్సరంలో	-10.5187
▁నమ్మక	-10.5188
▁మెయిన్	-10.5189
▁లేకపోయినా	-10.5191
▁అన్నము	-10.5193
▁వ్యాధుల	-10.5194
ంచీ	-10.5195
▁నెలల్లో	-10.5198
▁యువకుడి	-10.5199
తీసి	-10.5211
▁వింటున్న	-10.5211
పత్ర	-10.5216
▁వేసే	-10.5216
▁వస్తు	-10.5218
▁రాత్ర	-10.5219
వర్ణ	-10.5222
▁ఉన్నారని	-10.5224
▁రాంబాబు	-10.5227
▁అర్ధరాత్రి	-10.5227
చల	-10.5229
▁దించ	-10.5237
▁నిండు	-10.5238
▁శ్రీనివాసరావు	-10.5242
▁పదో	-10.5242
▁రాజమండ్రి	-10.5246
▁గోపాల్	-10.525
▁సీఆర్	-10.5251
▁బహుమతి	-10.5253
▁సహించ	-10.5253
▁కావటం	-10.5254
▁సాధ్యమ	-10.526
▁వికెట్	-10.5267
▁సెంచరీ	-10.5273
▁గ్రామీణ	-10.5277
▁ఏదీ	-10.5278
▁వింటూ	-10.528
▁వెళ్లారు	-10.5281
దిగి	-10.5286
ింతురు	-10.5291
▁పట్టుకున్న	-10.5293
▁భీమ	-10.5296
▁జరప	-10.5302
▁వాడిని	-10.5305
▁ఉద్యోగాలు	-10.5308
▁యంత్ర	-10.5314
▁సరసన	-10.5315
▁చార్	-10.5318
▁చెత్త	-10.5318
▁కలవర	-10.5321
రక్ష	-10.5322
▁కోచ్	-10.5324
▁500	-10.5324
▁బ్రి	-10.5327
▁యింటికి	-10.5328
▁కష్టమ	-10.5332
▁ఫాలో	-10.5332
లాడి	-10.5333
▁జీవో	-10.5336
▁యింత	-10.5339
▁గ్రామాల్లో	-10.5341
యె	-10.5343
▁చెబుతూ	-10.5349
వచన	-10.5356
▁బాధపడుతున్న	-10.5357
▁నిర్మించిన	-10.5358
▁అంశాలపై	-10.5358
▁వంచ	-10.536
▁కేంద్రంలో	-10.536
▁బంధువుల	-10.536
▁సిగ్గుపడ	-10.5363
▁దృశ్యం	-10.5363
▁అందజేశారు	-10.5363
▁సుందరం	-10.5365
▁వ్యాఖ్యల	-10.5369
▁మాధుర్	-10.537
▁కధ	-10.5371
▁ఎస్టీ	-10.5372
▁నీళ్ల	-10.5373
ూరులో	-10.5373
ుతాయి	-10.5374
▁లక్ష్యంగా	-10.5375
▁మొగ	-10.5376
▁చెలరేగ	-10.5377
▁కోల	-10.5378
దమ్మా	-10.5382
▁నడక	-10.5385
▁అభ్యర్థుల	-10.5393
కృతి	-10.5395
▁అనూహ్య	-10.5397
ుకోకుండా	-10.5397
కొడుకు	-10.5398
ప్స్	-10.54
▁నెట్ట	-10.5401
▁అడుగుతున్న	-10.5408
▁ప్లీజ్	-10.5408
▁చేశాయి	-10.541
ుడగు	-10.5411
▁అధికంగా	-10.5412
▁చూడటం	-10.5412
▁ఫార్మా	-10.5414
▁జరుగుతుంద	-10.5414
▁కిలోల	-10.5419
▁రూపం	-10.5421
▁పోస	-10.5422
▁ఈయన	-10.5424
▁ఎల్ల	-10.5424
▁కప్	-10.5424
▁వుందని	-10.5433
డెంట్	-10.5437
▁నోటిఫికేషన్	-10.5439
ముద్ర	-10.5439
▁నంబర్	-10.5439
▁ఏడుపు	-10.5442
▁దేశంలోని	-10.5444
▁వాసన	-10.5448
▁సమస్త	-10.5454
▁రాదు	-10.5456
▁రన్	-10.5457
▁రేణుక	-10.546
▁బతుక	-10.5467
▁మామిడి	-10.5467
పోయిందని	-10.5468
రెండు	-10.5471
▁పుష్ప	-10.5482
కెలా	-10.5485
▁వైద్యం	-10.5485
▁వెనక్కు	-10.5488
▁జీవించ	-10.5492
▁క్షణాల	-10.5493
▁లేకపోవడంతో	-10.5501
▁అప్పుడ	-10.5502
▁ఉద్యోగాల	-10.5502
పోనీ	-10.5504
▁వెళ్ళారు	-10.5504
రంగు	-10.5505
▁మోగ	-10.5506
▁అనుమతించ	-10.5511
▁పడుకుని	-10.5513
▁తీసుకొచ్చా	-10.5515
▁పిల్లల్ని	-10.5515
▁గుడ్డ	-10.5519
కరమైన	-10.5519
▁జేబులో	-10.552
▁మించిన	-10.5521
▁తియ్య	-10.5521
▁పిలుపునిచ్చారు	-10.5523
▁మీనాక్షి	-10.5523
▁ముఖ్యమైన	-10.5523
▁ఆఫీసులో	-10.5525
▁విధానాల	-10.5529
▁భయపడి	-10.5531
▁బయో	-10.5532
చార్	-10.5534
▁ఉన్నప్పుడు	-10.5541
రావ్	-10.5542
▁పెక్టర్	-10.5547
శుద్ధ	-10.555
▁ఆధునిక	-10.5551
▁దేశానికి	-10.5552
▁పేర్కొ	-10.5553
▁70	-10.5553
▁తొందరగా	-10.5556
సియా	-10.5563
▁ఎమ్	-10.5564
▁నిజమ	-10.5564
▁లాభాల	-10.5565
శాస్త్ర	-10.5568
▁కొర	-10.5568
303	-10.557
▁దిగువ	-10.5572
▁దురదృష్ట	-10.5572
▁పురస్కార	-10.5573
లేదూ	-10.5576
▁యిలా	-10.5578
▁నిపుణులు	-10.5578
నేమో	-10.5579
▁ఉపాధ్యాయ	-10.5581
▁ఒప్పుకో	-10.5584
▁శశికళ	-10.5586
▁నక్షత్ర	-10.5587
▁గాజు	-10.5593
▁రద్దీ	-10.5594
▁సమస్యలను	-10.5595
▁నమో	-10.5598
▁కమ్మ	-10.56
▁పట్టింది	-10.56
▁మొత్తానికి	-10.5601
భాగ్య	-10.561
వాదం	-10.5611
▁సెంట్రల్	-10.5615
▁అర్జున్	-10.5615
ర్పణ	-10.5615
ఎవరు	-10.5616
▁తిరుగుతూ	-10.5621
వారీ	-10.5624
ాత్మ	-10.5625
▁మున్సిపల్	-10.5629
▁శ్రీకాకుళం	-10.5629
▁పేర్కొన్న	-10.5632
సాఫ్ట్	-10.5633
▁గదా	-10.5634
▁ఉత్సాహం	-10.5634
▁పోతున్న	-10.5637
▁విడ	-10.5637
▁కంట్రోల్	-10.5643
దామని	-10.5646
▁గెస్ట్	-10.565
▁పోర్ట్	-10.5653
▁తెలియక	-10.5653
▁లేదంటే	-10.5653
పోతారు	-10.5658
▁రోజుకు	-10.5661
---	-10.5662
▁విజయనగరం	-10.5664
▁ఎన్నికలు	-10.5665
ుతూంది	-10.5668
▁తెలుప	-10.5672
▁వెర్రి	-10.5672
▁కోరిన	-10.5677
▁జరగనున్న	-10.5678
▁గెలుపు	-10.5679
▁దేశాల్లో	-10.5682
‘	-10.5685
ుణ్ణి	-10.5688
▁చోటుచేసుకుంది	-10.5693
▁సీపీఎం	-10.5693
▁కనిపిస్తా	-10.5693
▁చేసుకుంటూ	-10.5695
షర్	-10.5695
ిస్తున్నాను	-10.5698
▁జియో	-10.5698
▁మొగుడ	-10.57
▁సందేహం	-10.5701
▁సుశీల	-10.5702
నమ్మా	-10.5702
భూత	-10.5702
▁దేవుడి	-10.5706
▁మమ్మల్ని	-10.5707
▁సూత్ర	-10.5708
తొ	-10.5708
▁కొని	-10.5709
▁నోట్లు	-10.571
▁పశువుల	-10.5711
▁చలపతి	-10.5711
▁చేరుకుంది	-10.5712
▁విలేకరుల	-10.5722
▁తరపున	-10.5722
▁పాల్	-10.5724
కొంద	-10.5726
▁పెట్టుకో	-10.573
▁విచ్చ	-10.5733
▁ఆరోపణల	-10.5733
▁జీతం	-10.5733
▁కేబినెట్	-10.5736
▁టాటా	-10.5738
▁ఆయుధ	-10.5738
▁కొనసాగుతున్న	-10.5738
▁తెలుస్త	-10.5746
▁ధ్వని	-10.5746
▁గుర్తుపట్ట	-10.5753
▁సందీప్	-10.5761
▁వేగ	-10.5767
ుకొంటున్న	-10.5769
వాటి	-10.5769
▁త్రాగ	-10.577
▁ముప్పు	-10.577
ెత్తు	-10.5773
▁చేసుకోవచ్చు	-10.5773
▁నిజంగానే	-10.5777
▁పడిపోయింది	-10.5777
థ్య	-10.5779
▁లిమిటెడ్	-10.5779
▁జమ	-10.5779
▁పుస్తక	-10.5781
▁ఉండటంతో	-10.5781
▁లేడు	-10.5784
▁మృత్యు	-10.5784
▁చిక్కు	-10.5785
▁మరికొన్ని	-10.5786
▁శ్వేత	-10.5787
▁పన్నెండు	-10.5788
▁బుద్ది	-10.5789
▁బలం	-10.5789
▁కలుసుకో	-10.5792
▁ధార	-10.5793
▁కోలీవుడ్	-10.5794
▁టోర్నీ	-10.5794
▁రూరల్	-10.5795
రూపాయల	-10.5795
వచ్చింది	-10.5801
ించుకో	-10.5802
లేదే	-10.5802
▁ఉగ్రవాదులు	-10.5806
▁కార్ల	-10.5808
▁అనూష	-10.5809
▁ప్రసన్న	-10.5809
కాంత్	-10.581
కుంట	-10.5811
పుత్ర	-10.5815
▁పరిష్కార	-10.5815
పోవాలి	-10.5816
▁పుష్కర	-10.5818
▁నిధి	-10.582
▁ఉదాహరణ	-10.5822
▁షె	-10.5823
▁పొడు	-10.5826
▁అతిథి	-10.5828
▁అర్చన	-10.5828
విద్య	-10.5829
▁అనుసంధాన	-10.583
▁బంధువులు	-10.5833
▁స్టె	-10.5834
▁గుట్ట	-10.5835
▁గోపాల	-10.5835
65.	-10.5835
▁శవం	-10.5836
▁వాగ్	-10.5839
▁స్వరం	-10.584
▁సంతకం	-10.584
▁వాక్య	-10.5841
▁సవాల్	-10.5842
▁యంగ్	-10.5845
▁వచ్చిందని	-10.5846
▁రాజారావు	-10.5848
▁ప్రసాదించ	-10.585
▁రవీంద్ర	-10.5851
▁ఎదుర్కో	-10.5851
▁మాట్లాడిన	-10.5855
▁రత్న	-10.5855
▁:-	-10.5856
▁పోరాట	-10.586
▁వీడి	-10.5861
▁కాగితం	-10.5866
▁పరువు	-10.5866
▁చేరుకున్నారు	-10.5869
▁వచ్చినప్పుడు	-10.587
▁వెండి	-10.5873
▁అంతటి	-10.5874
▁వాడే	-10.5876
▁సైనిక	-10.5877
▁నడుస్తూ	-10.5878
▁విషాదం	-10.5879
▁నాయకుడు	-10.5881
నిన్ను	-10.5881
▁ఎండీ	-10.5883
నట్లుగా	-10.5892
గలిగే	-10.5894
ుతుందో	-10.5895
▁ఏరియా	-10.5898
ార్థం	-10.5898
▁జాబితా	-10.5902
▁ద్వార	-10.5904
▁సంపద	-10.5907
▁కార్మికులు	-10.5908
....?"	-10.5909
▁ఘర్షణ	-10.591
▁యజమానుల	-10.591
▁పరీక్షల	-10.5915
▁ఏవో	-10.5917
▁పర్యావరణ	-10.5917
▁పొద్దు	-10.592
వెళ్ళ	-10.5921
▁భక్తి	-10.5922
▁విసురుగా	-10.5925
▁నిలిచింది	-10.5929
E	-10.5932
▁పరిశోధకులు	-10.5934
▁చేయాలన్న	-10.5934
స్తుందో	-10.5938
▁మృదువుగా	-10.5939
▁ఉత్సవాల	-10.5942
▁అనురాగ	-10.5942
న్యాయ	-10.5949
▁సవరించ	-10.595
▁గన్	-10.5953
▁అనుష్క	-10.5954
▁తిండి	-10.5955
దన్నారు	-10.5964
▁విధానాన్ని	-10.5965
▁సంబంధిత	-10.5972
▁చూడలేదు	-10.5974
▁పంచాయతీ	-10.5975
▁క్షేమ	-10.5983
మహా	-10.5986
▁చెప్పటం	-10.5987
▁వాషింగ్టన్	-10.599
ఛీ	-10.599
గె	-10.5991
▁దంపతులు	-10.5993
▁నిఘా	-10.5998
▁శతృఘ్న	-10.5998
▁అంక	-10.5999
▁చూసుకో	-10.6
▁ఫోర్స్	-10.6002
85.	-10.6003
లింగం	-10.6004
▁అవకాశాల	-10.6018
▁సత్తా	-10.602
▁శశాంక	-10.602
ుకొన్నాడు	-10.6022
▁కోట్లతో	-10.6024
▁నిర్వహించే	-10.6024
▁లోతు	-10.6029
▁బౌ	-10.6031
▁అన్నాడతను	-10.6033
ేశా	-10.6034
77.	-10.6034
▁డివిజన్	-10.6035
▁మొదలైంది	-10.6038
▁అందించారు	-10.6038
వాడే	-10.604
▁చోట్ల	-10.6042
ాయుధ	-10.6042
▁పచ్చి	-10.6045
▁ఎండి	-10.6045
▁భుజ	-10.6047
▁ట్రెండ్	-10.6049
▁మార్కుల	-10.6057
▁సరస్వతి	-10.6057
▁ఆడియో	-10.6057
లిపి	-10.6058
▁విభాగాల	-10.6062
▁నోటు	-10.6064
67.	-10.6065
▁నిషేధ	-10.6071
▁ఎప్పటికప్పుడు	-10.6072
▁జేఏసీ	-10.6079
▁కలకలం	-10.6079
▁వివరణ	-10.6079
▁అభినందన	-10.6087
▁చూస్తుండ	-10.6089
▁విషయమై	-10.6089
▁చేసుకు	-10.6097
▁కనిపించిన	-10.6099
▁మెరుగు	-10.6101
▁రష్యా	-10.6102
▁కాల్పులు	-10.6104
▁వెళితే	-10.6107
▁ఎదిగ	-10.6108
▁తరఫున	-10.6109
▁బంగార	-10.6113
వుతాయి	-10.6116
▁గమనించి	-10.6119
▁నిర్వహించనున్న	-10.6119
▁రహదారి	-10.6124
▁వేధింపుల	-10.6124
▁మంచ	-10.6125
మ్మగారు	-10.6125
▁యజ్ఞమున	-10.6128
▁పతక	-10.613
▁పార్లమెంట్	-10.6131
▁చెందాడు	-10.6134
ుడిలా	-10.6137
▁సమాచార	-10.6139
▁విజేత	-10.6139
▁రూపొందించిన	-10.6141
▁అర్ద	-10.6142
▁యుద్ధం	-10.6148
సింహ	-10.6149
▁రాజకీయాల	-10.615
▁ఏడుస్తూ	-10.615
చరణ	-10.6153
▁మొదట్లో	-10.6155
▁ఇకపై	-10.6158
▁విరాట్	-10.6158
మెంట	-10.6159
▁సూచించ	-10.616
▁విక్రయించ	-10.6164
▁కోపంతో	-10.6167
▁జ్ఞాపకం	-10.6168
గదిలో	-10.6168
▁ఉత్తరప్రదేశ్	-10.6169
▁విస్తరించ	-10.6169
▁చర్మం	-10.6171
▁వెలిగించ	-10.6176
▁ఏజెన్సీ	-10.6176
▁అప్పట్లో	-10.6177
▁ఒళ్ళు	-10.6179
▁ద్వేష	-10.6184
▁ఎంసీ	-10.6185
▁కతా	-10.619
▁మింగ	-10.619
▁తెచ్చిన	-10.6192
▁ఫ్రె	-10.6192
▁ఇటీవలే	-10.6194
▁పడ్డారు	-10.6194
▁నిబంధన	-10.6198
▁వచ్చినట్లు	-10.62
75.	-10.62
దగ్గ	-10.6201
▁హెల్త్	-10.6206
▁గురువు	-10.6207
రెక్ట	-10.6209
పూర్వకంగా	-10.6212
▁అంతకుముందు	-10.6216
▁ఐఎస్	-10.6218
అంతే	-10.622
▁అక్కడున్న	-10.622
భాగం	-10.622
▁దిశ	-10.6221
సభ్య	-10.6225
87.	-10.6227
గలడు	-10.6227
పిస్తుంది	-10.6228
▁అసంతృప్తి	-10.6229
▁బ్రాండ్	-10.6232
▁యువకులు	-10.6235
కెళ	-10.6243
▁వాటిలో	-10.6249
▁మరచిపో	-10.625
పత్రాల	-10.625
▁అందించిన	-10.6252
▁రెక్క	-10.6257
▁జయలలిత	-10.6259
మంత్ర	-10.6275
▁గాయత్రి	-10.6276
కేమీ	-10.6279
▁సీతారామ	-10.6282
పిస్తూ	-10.6282
▁రావణ	-10.6285
▁బిఐ	-10.6285
▁ఊర్	-10.6286
▁రాయలసీమ	-10.6289
▁నవీన్	-10.6289
▁నాటకం	-10.629
ళీ	-10.629
▁ఇదిలా	-10.6294
ుకోవటానికి	-10.6296
▁చాటు	-10.6304
▁చీకట్లో	-10.6304
▁జరిపిన	-10.6306
▁ఐదుగురు	-10.6306
▁పరిహారం	-10.6307
పరంగా	-10.6308
▁డిపాజిట్	-10.6312
▁నాన్నగారు	-10.6313
▁గ్యాస్	-10.6314
▁తీశాడు	-10.6315
▁నేలమీద	-10.6315
▁వెల్ల	-10.6316
ాశయ	-10.6317
▁సీట్ల	-10.6317
▁సిగ్నల్	-10.632
▁దళ	-10.6323
▁రూపాయి	-10.6326
దండీ	-10.6326
▁ఏసీ	-10.6328
చారి	-10.6331
▁బయలుదేరి	-10.6338
▁కోరింది	-10.6342
▁బ్యాక్	-10.635
▁ఫుడ్	-10.6351
భగవ	-10.6352
▁ఇష్టమ	-10.6355
రాబాద్	-10.6356
స్తామన్నారు	-10.6357
▁నమస్కార	-10.6358
అయ్యో	-10.6358
▁సింగ	-10.636
▁నాకేం	-10.6367
▁కొట్టుకు	-10.6367
దాత	-10.6368
▁బియ్యం	-10.6374
▁ముత్యాల	-10.6376
▁రుద్ర	-10.6377
▁పువ్వు	-10.638
▁వెళ్ళిపోయారు	-10.6383
ుతున్నట్టు	-10.6384
▁మెరిసి	-10.6385
▁మంచంమీద	-10.6386
▁విషాద	-10.6387
▁రివాల్వర్	-10.6388
ింట్లో	-10.6389
▁సెక్స్	-10.6389
▁జరిప	-10.6393
▁ఫండ్	-10.6395
▁మామయ్య	-10.6403
▁కుటుంబానికి	-10.6403
▁అంతకంటే	-10.6403
▁కమీషనర్	-10.6404
▁ధైర్య	-10.6405
▁ఏనుగు	-10.6405
▁బౌలర్	-10.6405
▁డేటా	-10.6407
▁చక్కని	-10.6411
▁ప్రాథమిక	-10.6411
▁ఐదేళ్ల	-10.6412
▁కుమార	-10.6413
▁నేరం	-10.6413
▁మారిన	-10.6418
▁ఇస్తే	-10.6418
కొద్ది	-10.6419
▁ఏర్పడిన	-10.6421
షనల్	-10.6422
▁ప్రసార	-10.6422
వాడికి	-10.6427
▁అగును	-10.6429
మైతే	-10.6434
▁తనిఖీ	-10.6434
▁లావాదేవీల	-10.6434
▁చక్రవర్తి	-10.6435
▁నీడ	-10.6445
▁శృంగార	-10.645
థాంక్స్	-10.645
▁ఎలాగో	-10.6455
▁తిరు	-10.6457
▁నోట్	-10.646
ుతాను	-10.646
▁కాపురం	-10.6462
▁సదస్సులో	-10.6464
▁కాకినాడ	-10.6465
నుకుంటాను	-10.6471
రమణ	-10.6473
▁సానుభూతి	-10.6473
▁ప్రయోజనాల	-10.6475
▁పునర్	-10.6475
▁బిల్	-10.6477
▁యమ	-10.6478
▁నిలవ	-10.6481
అదేమిట	-10.6482
▁పుస్తకాల	-10.6485
శ్రమ	-10.6486
పర్చ	-10.6488
▁బెర్	-10.6488
పోయినట్లు	-10.6497
▁చిన్నపిల్ల	-10.6499
▁రాయి	-10.65
ాడేమో	-10.65
▁ఖరారు	-10.6504
దర్శి	-10.6504
▁బద్ద	-10.6505
▁ఆసుపత్రిలో	-10.6507
▁వేస్తూ	-10.6507
▁రుణం	-10.651
▁వారంలో	-10.6512
▁అవన్నీ	-10.6526
బిడ్డ	-10.6532
శిక్ష	-10.6533
▁దిగ్గజ	-10.6535
ుకుంటున్నాడు	-10.6539
▁కాల్చి	-10.6539
▁నటన	-10.6542
▁నిస్సహాయ	-10.6543
▁కనిపించలేదు	-10.6543
▁నెస్	-10.6548
▁భుజాల	-10.6549
▁తీసింది	-10.6552
ముందే	-10.6556
▁హల్	-10.6563
▁పుష్కరాల	-10.6564
▁భవనాల	-10.6565
▁కాంట్రాక్టు	-10.6566
▁సన్నాహాలు	-10.6566
▁వనరుల	-10.657
▁ఆవేశంగా	-10.6571
▁గంటల్లో	-10.6571
▁కథనం	-10.6573
▁జరిమానా	-10.6574
▁అతడ్ని	-10.6578
▁వణుకు	-10.6581
▁కర్ర	-10.6582
▁దొ	-10.6586
▁తమ్ముడ	-10.659
▁దారుణంగా	-10.6592
▁పెట్రో	-10.6594
▁నడిచింది	-10.6594
▁ప్రదీప్	-10.6594
గలిగితే	-10.6595
▁జనాభా	-10.6597
▁గురైన	-10.6601
▁ఆలయంలో	-10.6608
▁మందులు	-10.661
▁నల్గొండ	-10.6613
▁సంబంధాలు	-10.6615
▁ప్రకట	-10.6616
▁ప్రయత్నంలో	-10.662
▁రాషా్ట్రల	-10.6621
▁ఉద్యోగి	-10.6621
▁రాష్ర్టాల	-10.6623
▁ఆయన్ని	-10.6623
ఏమిటీ	-10.6624
▁ఫ్రెండ్స్	-10.6626
కొచ్చారు	-10.6633
▁సరిపో	-10.6634
న్యూఢిల్లీ	-10.6634
▁చోరీ	-10.6637
▁ఇన్నాళ్ళ	-10.6638
చేస్తే	-10.6638
▁దానిపై	-10.6639
▁పెట్టుబడుల	-10.6639
▁పూర్ణ	-10.6646
▁చేయాలో	-10.6646
▁పార్క్	-10.6648
చేశాడు	-10.6651
▁ఒక్కక్షణం	-10.6651
▁హాజర	-10.6652
▁దాదా	-10.6657
ుండగా	-10.666
▁రాశా	-10.667
▁కాల్పుల	-10.6674
కెందుకు	-10.6677
ంటుంటే	-10.668
▁రియల్	-10.6681
▁ఇక్కడికి	-10.6684
▁అనుపమ	-10.6685
▁అద్భుతమైన	-10.6687
▁ఏళ్ళ	-10.6688
▁స్వచ్ఛ	-10.6688
▁ఇబ్బందుల	-10.6688
▁సైనికుల	-10.6689
▁గేట్	-10.6689
▁అవే	-10.669
▁ఇందాక	-10.6691
▁ఉద్దేశ్యం	-10.6694
▁ప్లాట్	-10.6696
ాంధ్ర	-10.6696
▁ఆస్ట్రేలియా	-10.6699
▁ముగిసింది	-10.6703
▁మొదలైన	-10.6703
▁కలిగించు	-10.6704
▁భూత	-10.6711
▁రహస్యంగా	-10.6714
▁అజిత్	-10.6716
▁కొడుక	-10.6722
▁తినే	-10.6723
▁రైట్	-10.6724
▁ప్రవర్తి	-10.6725
▁పూట	-10.6725
▁విశాల్	-10.6726
▁గంభీరంగా	-10.6732
▁విజ్ఞాన	-10.6737
ుద్దీన్	-10.6739
▁గాయపడ్డారు	-10.6748
▁బాలయ్య	-10.6754
▁కాదా	-10.6758
ావిడ	-10.6761
▁వయస్సు	-10.6763
▁అండ	-10.6764
▁అనుమతుల	-10.6765
▁యింక	-10.6767
గురించి	-10.6767
▁ప్రశాంతంగా	-10.6771
▁పెట్టడం	-10.6774
▁ఎవ్వర	-10.6776
▁ఎక్కడికి	-10.6779
ఎమ్	-10.6784
▁అసహ్యం	-10.6784
▁కడుపులో	-10.6786
▁అనుభూతి	-10.6788
ుచున్నారు	-10.6791
▁వైఎస్	-10.6793
▁గాయపడిన	-10.6793
▁జరిగ	-10.6796
▁నిండా	-10.6797
▁స్పందించారు	-10.6798
▁కావ్య	-10.6805
▁సమాజంలో	-10.6806
▁రాజకీయాల్లో	-10.6808
▁తలూప	-10.681
▁చెప్పేది	-10.681
▁కాంబినేషన్	-10.6811
▁వ్యాయామ	-10.6811
▁ఎదుర్కొంటున్న	-10.6818
▁రూపాయలకు	-10.6821
▁బలము	-10.6827
▁టన్నుల	-10.6829
▁లభిస్తుంద	-10.6833
▁చెబుతాను	-10.6834
▁మంటలు	-10.6834
▁ఎనిమిద	-10.6839
▁సచివాలయంలో	-10.684
▁అడిగాను	-10.6842
▁చచ్చిపో	-10.6843
బద్ద	-10.6843
▁అతనే	-10.6845
▁కావలసిన	-10.6845
▁చార్జి	-10.6846
▁రథ	-10.6848
▁సింగరేణి	-10.6851
▁స్టేడియం	-10.6851
▁మురళీ	-10.6851
▁కూతుర్ని	-10.6851
▁నేనేం	-10.6861
▁బరిలో	-10.6867
▁శుభాకాంక్షలు	-10.6867
▁మంత్రము	-10.6867
▁వుండడం	-10.687
▁బలమైన	-10.6871
మూడు	-10.6871
▁ప్రాంతం	-10.6872
▁మనుష్యుల	-10.6875
▁లైంగిక	-10.6875
▁నాశనం	-10.6875
▁కాలేజీలో	-10.6878
▁కేంద్రాల	-10.6879
▁అట్ట	-10.6882
▁విచారణకు	-10.6883
▁ప్రభాస్	-10.6883
▁సెకండ్	-10.6883
▁అనుకుని	-10.6885
▁సీజన్	-10.6886
▁ఎగ్జ	-10.6886
▁వేగం	-10.6887
కపోవటం	-10.6888
▁కొంతకాలం	-10.689
ిస్తాడు	-10.6892
▁యిక్కడ	-10.6892
▁నగరం	-10.6894
▁ఆకర్షించ	-10.6899
ాల్సిందిగా	-10.6899
పింగ్	-10.6906
▁శిశువు	-10.6907
దేవా	-10.6909
లేదన్న	-10.691
▁నుదుట	-10.6915
▁సికింద్రాబాద్	-10.6915
బడు	-10.6918
నుకున్నాను	-10.6918
▁వైద్యుల	-10.6931
▁నివాసం	-10.6938
▁ప్రోత్సహించ	-10.6939
చర్ల	-10.694
▁జోరు	-10.6941
▁ఆధారాల	-10.6945
▁మరణం	-10.6945
▁పదిమంది	-10.6948
▁జీర్ణ	-10.6952
▁తెలిసే	-10.6955
▁సర్టిఫికెట్	-10.6956
▁కదు	-10.6956
▁బ్యాగ్	-10.6957
▁చనిపోయిన	-10.6963
▁కిరీటి	-10.6964
▁బిజీగా	-10.6964
▁వార్షిక	-10.6972
ప్పుడూ	-10.6975
▁నిర్ణయానికి	-10.6975
ింపుము	-10.6976
▁మళ్ళి	-10.6977
▁వస్త్ర	-10.6977
▁వ్యాపించ	-10.6977
ంపేట	-10.6978
▁యాజమాన్యం	-10.6979
▁కేజ్రీవాల్	-10.698
▁అంతకన్నా	-10.6983
▁అరవ	-10.6985
▁పాక	-10.6988
▁జరిగిందని	-10.6991
ప్తి	-10.6993
▁అనవసరంగా	-10.6994
▁ఇందుమతి	-10.6996
▁తనిఖీలు	-10.6996
గఢ్	-10.6998
గలదు	-10.6999
▁వున్నది	-10.6999
▁క్లాసు	-10.7002
▁ఫోను	-10.7002
పోకుండా	-10.7003
▁ఒలింపిక్	-10.7004
వంతుల	-10.7005
▁పిచ్చ	-10.7006
▁ప్రభుత్వాలు	-10.7007
▁వంశీ	-10.701
ెయిర్	-10.7013
▁కేటాయింపు	-10.7022
▁చేసుకున్నా	-10.7023
▁ఆదేశించ	-10.7023
▁థా	-10.7025
▁సచిన్	-10.7029
మరణ	-10.703
▁సర్కిల్	-10.7031
▁తీసుకున్నా	-10.7033
▁చాంపియన్	-10.7037
▁అనసూయ	-10.7037
▁అత్యాచారం	-10.7039
▁తెరుచుకు	-10.7046
వర్ధన	-10.7051
▁సారీ	-10.7053
▁డిపార్ట్	-10.7053
▁మహేష్	-10.7054
రహిత	-10.7055
▁రోగుల	-10.7058
▁ఎముక	-10.7063
▁మానసికంగా	-10.7063
▁అయిపోయా	-10.7065
▁అంశం	-10.7066
ేస్తాను	-10.7069
▁వదిలిపెట్ట	-10.7069
▁విగ్రహం	-10.707
భక్త	-10.708
ప్రకాష్	-10.7082
డానిక	-10.7086
▁చేస్తున్నాయి	-10.7086
▁ప్రజల్లో	-10.7089
▁చెయ్యడం	-10.709
▁సామర్థ్యం	-10.709
▁సదరు	-10.7096
▁తీసుకెళ్ళి	-10.7097
▁పెరుగుతున్న	-10.7099
▁అడిగారు	-10.71
▁కృతజ్ఞతలు	-10.7101
▁అందరినీ	-10.7101
▁శారీరక	-10.7103
▁నిషేధం	-10.7103
▁చేయుము	-10.7104
యాత్ర	-10.7105
▁ఇంకొక	-10.7106
▁రావాలని	-10.7107
ింకా	-10.7107
▁అండర్	-10.711
మిస్టర్	-10.7115
▁కోస్తా	-10.7115
▁చిత్త	-10.7117
నయినా	-10.7118
▁ఒంటరి	-10.7119
▁ఛీ	-10.712
▁క్షణాల్లో	-10.7121
▁సుందరి	-10.7122
▁సమావేశ	-10.7125
▁ఖండ	-10.7127
▁ప్రాజెక్ట్	-10.7136
▁వారిపై	-10.7138
రాజా	-10.7139
▁దర్శనం	-10.7142
▁కావాల్సిన	-10.7144
▁కేజీ	-10.7144
పరమైన	-10.7145
▁పిలిచాడు	-10.7148
▁అనుమానంగా	-10.7148
▁ఆంధ్రా	-10.7155
▁రామారావు	-10.7156
▁సేవా	-10.7165
▁అమె	-10.7167
▁శకుంతల	-10.7169
▁పెదవి	-10.7169
నట్లే	-10.7173
▁సర్వీస్	-10.7177
ాదుల	-10.7186
ఫర్వాలేదు	-10.7187
▁ఎదుటి	-10.719
వేసింది	-10.7191
▁సుధీర్	-10.7194
▁తడు	-10.7194
▁మరుత్తుల	-10.7195
▁బంద్	-10.7197
▁వెచ్చ	-10.7201
▁అనవసర	-10.7204
▁నెయ్యి	-10.7205
▁అందిస్తున్న	-10.7205
▁సమక్షంలో	-10.721
▁పనితీరు	-10.721
▁కరెన్సీ	-10.721
▁ప్రశ్నించాడు	-10.7211
▁బకాయిల	-10.7211
▁నిలబడింది	-10.7213
భంగ	-10.7218
▁ఫలితంగా	-10.7219
▁క్షణాలు	-10.722
▁వినాయక	-10.722
పడుతుంద	-10.7222
▁పెళ్ళయి	-10.7223
▁కనిపించడం	-10.7224
▁జత	-10.7225
▁సానుకూల	-10.7227
▁ప్రణయ్	-10.7229
▁జలము	-10.723
ధర్మ	-10.723
▁ఉద్వేగ	-10.7232
▁వరుణ	-10.7234
వాణ్ణి	-10.7234
▁తెలివితేటల	-10.7235
▁అరుదైన	-10.7235
▁స్టార్ట్	-10.7236
▁తుమ్మల	-10.7236
బెట్టి	-10.724
▁రోష	-10.7241
▁సాంగ్	-10.7241
▁గడుప	-10.7242
▁గురించే	-10.7242
▁సరుకు	-10.7243
▁నిద్రపో	-10.7245
▁కొమ్మ	-10.7248
▁విద్యార్థిని	-10.7251
మండల	-10.7251
చోట్ల	-10.7252
▁ప్రగతి	-10.7252
▁చేయనున్నారు	-10.7255
▁ఉద్యోగులకు	-10.7257
▁ఇహ	-10.7257
▁పటేల్	-10.726
▁ఉత్తమ్	-10.7261
▁పెరుగుతుంద	-10.7261
▁సచివాలయ	-10.7263
▁సంపూర్ణ	-10.7269
▁రేప్	-10.7269
▁తులసి	-10.7269
▁రాధిక	-10.7278
▁పిలిపించ	-10.7278
on	-10.7279
ాడాయన	-10.7284
▁ద్వి	-10.7288
లేదన్నారు	-10.7289
స్తున్నట్టు	-10.7291
▁వెల్లడి	-10.7293
భూమి	-10.7294
▁కాశీ	-10.7295
▁కళ్ళతో	-10.7296
▁ఖాయం	-10.7302
▁పండ్ల	-10.7303
▁టీజర్	-10.7305
చేసుకున్న	-10.7315
▁ప్రభావ	-10.7318
▁ప్రారంభించాడు	-10.7321
▁సమావేశాలు	-10.7321
▁కానుంది	-10.7325
▁మాట్లాడటం	-10.733
రకాల	-10.7332
▁ఉద్రిక్త	-10.7336
▁రహస్యం	-10.734
▁పరిణామాల	-10.7347
▁అందించే	-10.7347
▁నలభై	-10.7353
చెప్పు	-10.7354
▁ఆటగాళ్ల	-10.7357
మృ	-10.7358
▁సమర్ధ	-10.7358
▁తీసుకువచ్చి	-10.7365
▁తిరిగే	-10.7367
▁అయ్యాయి	-10.7371
▁కొంప	-10.7371
▁కేంద్రానికి	-10.7375
▁సూర్యుడు	-10.7377
▁గుహ	-10.7377
▁అనుచరుల	-10.7378
▁విప్పి	-10.7379
తావు	-10.7381
ేటట్లు	-10.7382
▁సదుపాయాల	-10.7386
▁బౌలింగ్	-10.7396
▁తెలిపాడు	-10.7396
▁సత్యమూర్తి	-10.7399
▁కుర్రాడు	-10.7403
▁ప్రత్యేకత	-10.7408
▁దుర్మార్గ	-10.7412
▁స్కోరు	-10.7412
ుకొంటూ	-10.7413
▁సంస్కార	-10.7418
▁అనుకున్నా	-10.7421
▁ఆలస్యంగా	-10.7421
▁పదవీ	-10.7426
▁పళ్ళు	-10.7429
కయినా	-10.743
▁రుణాల	-10.7434
▁రహిత	-10.7434
▁భరించలేక	-10.7438
▁సింగపూర్	-10.7439
▁లేచింది	-10.7443
▁నోటీసులు	-10.7445
▁ప్రశాంత్	-10.7446
▁విమల	-10.7448
▁అర్పించ	-10.7449
ొస్తే	-10.7458
▁వ్యాన్	-10.7459
▁కేకలు	-10.7462
▁సైన్యం	-10.7463
▁న్యాయవాది	-10.7471
▁ఛందస్సు	-10.748
నవసరం	-10.7482
▁వస్తాయి	-10.7486
100	-10.7487
బాహుబలి	-10.7488
▁రాజమౌళి	-10.7488
▁నెలకొంది	-10.7488
▁గ్రౌండ్	-10.7497
▁హొ	-10.7499
▁రోల్	-10.7505
▁సన్నిహిత	-10.7506
▁సవరణ	-10.7506
▁సింగిల్	-10.7507
▁ఇళ్లు	-10.7509
▁శ్రీహరి	-10.7514
▁తీసుకుంటే	-10.7521
▁గ్రేటర్	-10.7523
▁కేంద్రమంత్రి	-10.7528
▁ప్రతిష్ట	-10.753
▁భాస్కర్	-10.753
▁ప్రథమ	-10.7532
▁విస్తృత	-10.754
▁సున్నిత	-10.754
▁శ్వాస	-10.7542
చేసుకో	-10.7545
▁కల్పించాలని	-10.7548
▁ఉపాధ్యక్షుడు	-10.7548
▁మినహా	-10.7549
▁కిషన్	-10.7555
▁అధికారంలోకి	-10.7555
▁షేక్	-10.7559
▁అంతవరకూ	-10.7565
▁ఎక్సైజ్	-10.7566
▁చదువుకున్న	-10.7567
▁బెదిరి	-10.7568
▁మార్కెట్లోకి	-10.7569
▁యాక్షన్	-10.7574
▁కూరగాయల	-10.7574
▁అంచు	-10.7576
▁తిరుగ	-10.7582
▁భక్త	-10.7583
▁పిడుగు	-10.7584
చూశా	-10.7584
▁వెలిగి	-10.7585
▁సెల్ఫీ	-10.7588
▁అరిచింది	-10.7588
▁ఉచితంగా	-10.7588
▁రాయ్	-10.7591
▁మనిష	-10.7592
▁పాకిస్తాన్	-10.7592
లాడుతున్న	-10.7594
▁చేద్దామ	-10.7596
▁జీహెచ్	-10.7597
▁చచ్చ	-10.7598
▁సమకూర్చ	-10.76
▁ఇప్పటివరకు	-10.7605
బాబూ	-10.761
▁ఉండడంతో	-10.761
▁రెండుసార్లు	-10.7614
సాగారు	-10.7615
▁ధీరజ	-10.7615
▁ఖాళీగా	-10.7616
▁నిరాకరించ	-10.7617
▁దీనివల్ల	-10.7618
▁వాహనాలు	-10.762
కొచ్చా	-10.7621
▁వస్తున్నాయి	-10.7621
పెళ్ళి	-10.7621
▁దళిత	-10.7623
ారంటే	-10.7626
▁ఆర్ధిక	-10.7627
▁తేదీల్లో	-10.7628
ంటావు	-10.763
పరిణామ	-10.7632
▁దోచ	-10.7634
▁విద్యుత	-10.7634
▁నమోదైంది	-10.7635
▁సస్పెండ్	-10.7635
ద్యోగ	-10.7637
▁కనిపిస్తుంది	-10.764
▁పోలిస్తే	-10.7644
▁పట్టణంలో	-10.7645
▁భావిస్తోంది	-10.7647
▁కారణమని	-10.7648
▁సమాజం	-10.7651
▁ఘటనపై	-10.7658
పల్లె	-10.766
▁హాస్య	-10.766
▁ప్లాస్టిక్	-10.7661
▁స్పూన్లు	-10.7661
వ్వాలి	-10.7662
▁చక్కెర	-10.7662
▁సమగ్ర	-10.7663
ులారా	-10.7675
▁నైపుణ్య	-10.7678
▁శాతానికి	-10.7678
▁అవయవ	-10.768
చేస్తున్న	-10.7681
▁జోడీ	-10.7682
▁కదిలింది	-10.7682
▁బ్యాట్స్	-10.7683
▁జరిగిందో	-10.7687
▁గవర్న	-10.7688
▁సమీప	-10.7693
▁చేస్తుంటా	-10.7695
▁నాన్నగారి	-10.7698
▁రాజశేఖర్	-10.7713
▁ఐటి	-10.772
విశ్వాస	-10.7723
యిపోయింది	-10.7729
▁విద్యార్ధుల	-10.7731
▁పేర్ల	-10.7736
మోహన	-10.7736
▁అత్యాచార	-10.7738
▁అయోమయంగా	-10.7739
▁సొసైటీ	-10.7739
▁తేల్చి	-10.774
▁చెపుతున్న	-10.7744
▁పద్మిని	-10.7744
▁ఏర్పాట్ల	-10.7744
▁లక్ష్మణ్	-10.7745
ేశ్వరి	-10.7745
▁పదేళ్ల	-10.7748
▁వార్డు	-10.7748
▁ఫ్యామిలీ	-10.7757
▁చెప్తున్న	-10.7757
▁జరుగుతున్నాయి	-10.7761
మన్నాడు	-10.7763
ుతామని	-10.7763
▁అయ్యాడు	-10.7769
దెబ్బ	-10.7773
▁బంతి	-10.7774
▁అమిత	-10.7777
▁రూంలో	-10.7779
▁అనుకున్నాను	-10.7779
▁అదనంగా	-10.7784
▁లొంగి	-10.7785
▁వినిపిస్త	-10.7788
▁బంధించ	-10.7793
▁రేపటి	-10.7796
▁ఎదురుచూస్తున్న	-10.7799
▁సావిత్రి	-10.7801
▁కష్టాల	-10.7802
▁చెల్లెలు	-10.7807
▁లేచ	-10.7809
▁ఫిట్	-10.7811
ారంటూ	-10.7813
వాడిలా	-10.7814
▁సులభ	-10.7814
▁టాక్సీ	-10.7818
▁అప్రయత్నంగా	-10.7819
▁నివారణ	-10.7819
▁ఇంతవరకూ	-10.7819
▁ఇంధన	-10.7824
▁గ్రంథ	-10.7828
▁పీడ	-10.7829
▁శ్రీకాంత్	-10.7831
▁ఫైల్	-10.7832
▁తలవంచ	-10.7836
▁పొంగి	-10.7838
కెక్క	-10.7843
▁పొడ	-10.7843
▁భాను	-10.7844
▁కోల్పోయి	-10.7845
▁కష్టపడి	-10.7849
మెత్త	-10.7851
▁తీవ్రత	-10.7853
తుక్కు	-10.7854
▁డిజిటల్	-10.7854
▁ముహూర్త	-10.7854
▁సంభవించ	-10.7856
▁చూడకుండా	-10.7857
▁మొక్కలు	-10.7857
స్థాన్	-10.7861
▁పొద	-10.7862
▁ఖచ్చితంగా	-10.7863
మాత్ర	-10.7865
▁చర్మ	-10.7865
దీప్	-10.7869
▁ఉల్లిపాయ	-10.7872
▁నిశ్చల	-10.7873
▁శరీరాన్ని	-10.7876
▁ఉత్సవ	-10.7878
▁గోపి	-10.7878
▁మనస్తత్వ	-10.7882
▁తిరిగింది	-10.7883
▁ప్రతినిధుల	-10.7884
▁వరస	-10.7895
▁ఆడదాని	-10.7896
▁ఓవర్లలో	-10.7896
▁జర్నలిస్టు	-10.7899
▁ట్రైలర్	-10.7901
▁చెడ్డ	-10.7902
▁ఉత్త	-10.7903
▁చేతులతో	-10.7905
▁లాగి	-10.7907
▁కార్పొరేట్	-10.7907
▁గమనిస్త	-10.7909
లేఖ	-10.7911
▁ఎంట్రీ	-10.792
▁సరదా	-10.7926
▁వంటివి	-10.7926
▁చేస్తానని	-10.7927
▁మచ్చ	-10.793
▁సంస్కృతి	-10.7931
టిక్స్	-10.7934
దైనా	-10.7935
▁ప్రశ్నించింది	-10.7936
▁ధ్రువ	-10.7937
ొకటి	-10.7938
▁వీణ	-10.7938
▁గాయాలు	-10.7938
▁భలే	-10.7942
▁స్టూడెంట్	-10.7943
▁ఆంజనేయ	-10.7943
▁సహకార	-10.7945
▁మాదిగ	-10.7946
▁బాటిల్	-10.7947
▁రైళ్ల	-10.7951
▁వెయిట్	-10.7952
▁స్నాన	-10.7954
▁పడుకో	-10.7954
▁మాట్లాడకుండా	-10.7968
▁సరిపడా	-10.797
▁కాలుష్య	-10.7972
▁తెలీని	-10.7975
▁చేసుకుంటే	-10.7976
▁గోపీ	-10.7977
▁ముందుగానే	-10.7979
▁పేదల	-10.7984
▁తీసుకుంటామని	-10.7987
▁అడవుల	-10.7992
లేనంత	-10.7995
▁సబ్సిడీ	-10.7997
▁గ్రూపు	-10.7997
▁రాంపండు	-10.7998
▁మెత్తగా	-10.7998
ిస్తున్నట్టు	-10.7999
▁చెప్పడానికి	-10.801
లైట్	-10.8014
▁మూగ	-10.8014
▁అండగా	-10.8014
▁కాలువ	-10.8015
▁కోమల	-10.8017
వచ్చిన	-10.8018
▁పెట్రోల్	-10.8019
▁చేస్తాడు	-10.8019
▁ప్రతాప	-10.8019
నుంచో	-10.8022
డబ్ల్యూ	-10.8024
▁ఆప్యాయంగా	-10.8024
▁మరికొందరు	-10.8024
▁ప్రతిష్ఠ	-10.8024
▁విధాన	-10.8027
మృత	-10.8028
▁ఎత్తుకు	-10.8031
▁సోఫాలో	-10.8033
శర్మ	-10.8034
▁మిత్రుల	-10.8037
▁అవుతుంద	-10.8037
▁నాలుక	-10.8041
▁ఎగ్జిక్యూటివ్	-10.8042
▁పతాకంపై	-10.8043
▁తెలిపిన	-10.8045
▁తమ్ముడు	-10.8045
▁హోమ	-10.8045
▁వాచ్	-10.806
▁తడిసి	-10.8062
▁గ్రాండ్	-10.8066
▁సులభంగా	-10.8066
▁తిరస్కరించ	-10.8069
▁గింజ	-10.8069
▁బంగ్లాదేశ్	-10.8069
▁రావడానికి	-10.8073
చుకొని	-10.8076
▁ఆఫీస్	-10.8079
▁లభిస్త	-10.8079
▁మమత	-10.808
▁ప్రధానమంత్రి	-10.8082
▁ఇదీ	-10.8084
▁అయ్యింది	-10.8087
▁సీట్లు	-10.8088
▁ఆవరణలో	-10.8097
▁స్వామివారి	-10.8101
▁నికర	-10.8103
▁రాలేద	-10.8103
▁వంశ	-10.8105
▁దిగజార	-10.8105
▁గుసగుస	-10.8106
▁ఆసుపత్రి	-10.8107
▁భవిష్యత్తులో	-10.811
▁కాళ	-10.8112
▁భామ	-10.8113
▁చేసుకోవాల	-10.8115
▁గమనించిన	-10.8117
▁ప్రాంతానికి	-10.8119
▁రుణాలు	-10.8119
▁టైము	-10.8122
పోవడానికి	-10.8123
▁బీసీసీఐ	-10.8124
▁అవుట్	-10.8124
▁దళితుల	-10.8133
▁విత్తనాల	-10.8134
▁వ్యవహరిస్తున్న	-10.8135
▁వీరికి	-10.8137
▁క్లా	-10.8141
▁దూకి	-10.8142
▁క్షమాపణ	-10.8142
రియల్	-10.8144
▁ఆసియా	-10.8144
▁నువ్వూ	-10.8148
▁శ్రీదేవి	-10.8148
▁నిమిషాల్లో	-10.815
▁మెరుగైన	-10.8151
▁జోక్యం	-10.8151
▁ప్రయాణించ	-10.8155
▁విసుగ్గా	-10.816
దేదో	-10.8163
▁చిరునవ్వుతో	-10.8169
▁హాజరుకా	-10.817
,500	-10.8171
▁మూత్ర	-10.8174
వచ్చే	-10.8175
▁రేడియో	-10.8179
లిగి	-10.818
▁రమ్మని	-10.8181
ాచారి	-10.8184
బ్రహ్మ	-10.8186
▁నృత్య	-10.8188
▁నొక్కి	-10.8189
ెన్నో	-10.8189
▁అద్భుతంగా	-10.819
▁ఇద్దరికీ	-10.82
చెప్పండి	-10.8202
▁విలన్	-10.8205
▁అన్నమాట	-10.8212
▁విదేశాల	-10.8212
▁భరద్వాజ	-10.8215
▁మరుసటి	-10.8215
▁అలంకరించ	-10.8215
▁జోన్	-10.8217
▁గోవా	-10.8217
▁రథము	-10.8218
▁లావణ్య	-10.8225
▁వ్యాస	-10.8225
▁విడుదలైన	-10.823
▁పొడవు	-10.823
▁కొరత	-10.8233
▁ప్యాకేజీ	-10.8234
▁గమనార్హం	-10.8243
▁విడత	-10.8246
▁గర్వంగా	-10.8246
▁తిలక	-10.825
▁నోట	-10.8251
▁తమాషా	-10.8252
▁అవుతుందని	-10.8256
ొద్దని	-10.8261
▁జీఎస్టీ	-10.8261
▁బుల్లెట్	-10.8261
▁సృష్టించిన	-10.8264
▁మంత్రిత్వ	-10.8268
గలిగిన	-10.8268
▁శుక్ర	-10.8271
▁బొంబాయి	-10.8271
థాంక్యూ	-10.8271
▁భవిష్యత్	-10.8274
▁రోజులపాటు	-10.8274
▁రాత్రంతా	-10.8275
▁ప్రదేశ్	-10.828
▁వర్షాల	-10.828
▁వ్యాపారుల	-10.8281
▁పోలింగ్	-10.8284
▁వేచి	-10.8287
▁కన్నీళ్ళ	-10.8287
▁దేశీయ	-10.8288
▁2013	-10.8289
▁మాతృ	-10.829
▁జరిపి	-10.8298
▁చెల్లె	-10.8301
స్థా	-10.8301
▁అనుకుంటా	-10.8303
▁ప్రారంభమైంది	-10.8303
▁వెళ్ళిపోతా	-10.8304
▁థ్రిల్	-10.8308
▁కలుగుతుంద	-10.8308
▁నడిపించ	-10.8311
▁స్తుతి	-10.8311
▁వివరంగా	-10.8317
▁అరుపు	-10.8318
▁చేసిందని	-10.832
▁సారధి	-10.8323
▁అవమానం	-10.8325
▁బంగ్లా	-10.8326
▁మేనేజ్	-10.8327
▁పగిలి	-10.833
▁చేద్దాం	-10.8331
▁దేవుడు	-10.8335
▁అత్యవసర	-10.8336
▁రీమేక్	-10.8336
ఒరేయ్	-10.8336
▁చేయబోతున్న	-10.8342
▁పచ్చిమిర్చి	-10.8345
▁ర్యాంకు	-10.8345
▁ప్రమాదకర	-10.8345
▁డ్రెస్	-10.8347
▁రెస్టారెంట్	-10.8354
గలుగుత	-10.8354
▁గురించీ	-10.8355
▁రోడ్డుమీద	-10.8355
భ్రాంత	-10.8356
▁డేవిడ్	-10.8364
▁చేయవచ్చు	-10.8367
▁నేత్ర	-10.8369
▁ఎటు	-10.8369
▁ఆశించ	-10.837
▁వీపు	-10.8372
▁క్రితమే	-10.8373
మూర్తుల	-10.8377
▁అభ్యర్థులు	-10.8379
▁జరిపారు	-10.8386
▁చేస్తున్నట్టు	-10.8388
▁బిగ్	-10.8388
▁రెప్ప	-10.8392
▁కౌన్సిల్	-10.8392
▁సంక్రాంతి	-10.8392
▁కళ్యాణ్	-10.8392
▁కృతజ్ఞత	-10.8394
చేతుల	-10.8395
▁ఆయిల్	-10.8398
▁సమాధి	-10.8401
▁సగటు	-10.8401
▁లేకపోవడం	-10.8403
▁సైన్స్	-10.8408
▁దాల్చ	-10.8409
▁ధాన్య	-10.8411
▁వెళ్ళాలి	-10.8413
▁అందామె	-10.8416
లాడుతూ	-10.8418
మేమిటి	-10.8426
▁నచ్చిన	-10.8432
క్ష్మ	-10.8433
▁ఘనత	-10.8438
▁తీశారు	-10.8439
▁మూలంగా	-10.8443
▁జైల్లో	-10.8445
▁కట్నం	-10.8445
▁సీఎస్	-10.8447
▁ప్రస్తావించ	-10.8448
▁కన్నీరు	-10.8449
▁అనుకూల	-10.845
▁ఏకాంత	-10.8451
▁అవుతోంది	-10.8452
▁పెదవులు	-10.8452
▁చేపడుతున్న	-10.8455
▁అవునా	-10.8456
▁సంజయ్	-10.8457
▁చర్చించారు	-10.8463
▁నిర్ణయాన్ని	-10.8464
▁సురక్షిత	-10.8467
▁గద్ద	-10.8469
▁ఘాట్	-10.8473
నిజంగా	-10.8474
▁సీట్లో	-10.8477
▁నిర్వహించాలని	-10.8482
▁చేరువ	-10.8483
▁కూర్చొని	-10.8484
▁గురై	-10.8484
నుంచే	-10.8489
▁సర్కార్	-10.849
పోయినట్టు	-10.8493
▁మృతదేహాన్ని	-10.8495
▁నాయనా	-10.8497
▁ఆమోదించ	-10.8498
▁శిఖర	-10.85
▁పేపరు	-10.8501
రత్నం	-10.8502
▁అమెరికన్	-10.8505
వల్సి	-10.8509
▁సంవత్సర	-10.851
చుట్టూ	-10.8513
▁సంఘాలు	-10.8516
చైతన్య	-10.8517
▁వెళ్తా	-10.852
▁రహదారుల	-10.8524
▁చదివిన	-10.8526
▁ఇతని	-10.8529
▁పప్పు	-10.8533
▁భద్రాచలం	-10.8533
హస్త	-10.8534
▁దొరికిన	-10.8535
▁అయింద	-10.8535
ంతవరకూ	-10.8552
పిచ్చి	-10.8554
▁విమానాశ్రయం	-10.8561
▁కాగితాల	-10.8562
▁రికార్డ్	-10.8565
కోసమే	-10.8572
ాభిమాన	-10.8573
▁డాలర్లు	-10.8576
▁గతేడాది	-10.8581
▁ఉంటాయని	-10.8581
▁నిపుణుల	-10.8582
▁సింధు	-10.8582
▁విశ్వాసం	-10.8583
▁తరచూ	-10.8585
▁కోల్పోయిన	-10.8587
▁వ్యయం	-10.8588
▁వికెట్ల	-10.8588
▁అమ్మవారి	-10.8588
▁చొరవ	-10.859
▁దోపిడీ	-10.859
▁సునీల్	-10.859
▁సరళ	-10.8598
▁వచ్చినట్టు	-10.8598
▁అత్తయ్య	-10.8599
▁చెప్పాలంటే	-10.8602
▁స్నేహితులు	-10.8602
▁తురుము	-10.8607
▁తగిలింది	-10.8608
▁ఎక్కించ	-10.861
▁ఆపరేట	-10.8612
▁తొంగి	-10.8612
▁వినూత్న	-10.8619
▁యాగ	-10.8622
▁కురిపించ	-10.8623
▁బృహస్పతి	-10.8628
▁ఫీచర్	-10.8629
▁కారణాలు	-10.8629
▁యువకుల	-10.8633
ప్రసాద	-10.8634
▁వారాల	-10.8638
▁లబ్ధి	-10.8638
నప్పుడల్లా	-10.8639
▁విలాస	-10.8651
▁వెంకటేశ్వర	-10.8652
▁తెచ్చుకున్న	-10.8653
▁తడబడ	-10.8664
▁తెరవ	-10.8666
▁కిడ్నీ	-10.8667
▁ఓపిక	-10.8668
▁కనీస	-10.8672
▁బేర	-10.8675
▁ఇంటర్నేషనల్	-10.8676
▁కొనసాగుతోంది	-10.8678
▁జరుగుతుందని	-10.868
▁స్పందించిన	-10.8688
▁మొత్తాన్ని	-10.8688
ురాల	-10.869
▁కార్యాలయాల	-10.8691
▁కార్తీక	-10.8694
▁వైఖరి	-10.8696
▁కుటుంబసభ్యుల	-10.8696
త్సాహ	-10.8701
అందుకే	-10.8709
▁బట్టల	-10.871
▁సివిల్	-10.871
నిజమే	-10.8723
▁కలిగే	-10.8726
▁రాణించ	-10.8728
ుచున్నవి	-10.8731
▁దత్తాత్రేయ	-10.8734
▁మౌలిక	-10.8736
▁విద్యాశాఖ	-10.8742
▁న్యూయార్క్	-10.8744
▁మ్యూజిక్	-10.8744
▁డ్రైవ్	-10.8744
▁మద్రాసు	-10.8744
పృ	-10.8745
▁మెసేజ్	-10.8754
భ్రమ	-10.8754
మాంస	-10.8755
▁సేకరణ	-10.8756
లేకపోతే	-10.876
పథ	-10.8761
▁చిత్రాలు	-10.8763
▁టెం	-10.8767
ేసుకున్న	-10.8767
▁వాళ్ళిద్దరూ	-10.8768
మార్గ	-10.8772
▁ఫ్లాట్	-10.8775
▁ఉత్తర్వుల	-10.8775
▁ఆత్మీయ	-10.8776
న్నింటినీ	-10.8779
మవుతుంద	-10.878
▁అభిప్రాయపడ్డారు	-10.8784
▁బీఎస్	-10.8789
▁వినోద్	-10.8799
▁మౌనం	-10.88
▁అర్చక	-10.8801
▁స్తుతించ	-10.8802
▁పాదయాత్ర	-10.8803
▁మాదిరిగా	-10.8804
▁ఉన్నతాధికారులు	-10.881
▁కృష్ణమూర్తి	-10.8811
ుతోన్న	-10.8815
▁ఆసక్తికర	-10.882
▁మారిపోయింది	-10.8822
▁ప్రమోషన్	-10.8822
▁నిర్లిప్త	-10.8822
▁అనుకూలంగా	-10.8822
▁నిర్ధారించ	-10.8822
▁నారాయణరావు	-10.8828
▁దొరికింది	-10.8831
▁రోజా	-10.8836
కెందుక	-10.8837
▁పాల్పడిన	-10.8838
▁అందుకున్నాడు	-10.8839
▁యాదగిరి	-10.8841
▁సమితి	-10.8842
▁స్పె	-10.8845
▁ప్రవేశించి	-10.885
ద్యా	-10.8862
ణ్య	-10.8871
▁గూగుల్	-10.8871
▁వేర్వేరు	-10.8871
▁కడియం	-10.8871
▁చెప్పినట్లు	-10.8876
▁ఉంటాడు	-10.8876
▁తేనె	-10.8877
▁చాలాసేపు	-10.8878
▁దృఢ	-10.8881
▁అప్పుడప్పుడు	-10.8885
▁మీదికి	-10.8887
▁ప్రజ్ఞ	-10.889
▁ప్రచురించ	-10.8891
▁అమిత్	-10.8894
▁వుండిపోయింది	-10.8898
▁ఆస్పత్రుల	-10.89
▁పావుగంట	-10.89
▁షార్ట్	-10.8901
▁పలికారు	-10.8902
▁వెళ్ళిపోతున్న	-10.8902
▁జరగనుంది	-10.8902
▁బిగించి	-10.8908
D	-10.891
▁సముద్రంలో	-10.8911
▁నర్సింగ్	-10.8912
▁విడాకుల	-10.8916
▁విస్తరణ	-10.892
▁అభినయ్	-10.892
బోయిన	-10.8921
ుతుంటారు	-10.8926
▁నిజమైన	-10.8929
▁ఓటర్ల	-10.8931
▁బయటపెట్ట	-10.8934
▁భారతీయుల	-10.8935
▁కళ్ళముందు	-10.8939
▁బోల్తా	-10.894
▁పెట్టుకొని	-10.8948
▁వ్యవస్థాపక	-10.895
జ్యోతి	-10.8956
▁దినకర్	-10.8966
▁మాధవి	-10.897
రావుగారు	-10.8971
▁అడిగా	-10.8975
▁పిలిచింది	-10.8979
▁తగుల	-10.8983
ోదయ	-10.8984
ున్నారని	-10.8987
జిల్లా	-10.8988
▁కసరత్తు	-10.8989
▁శ్రీకారం	-10.899
ఎంసీ	-10.8993
▁లేడీ	-10.8993
▁తక్షణం	-10.8994
▁జెండా	-10.8998
▁వేగంతో	-10.9
▁లీగ్	-10.9
▁ఆసీస్	-10.9003
ొందల	-10.9008
▁పరామర్శించ	-10.9009
జీబీ	-10.9018
▁కబురు	-10.9019
▁కలిప	-10.902
▁మైక్రో	-10.9029
ుతాయని	-10.9038
ారనే	-10.9038
దేమీ	-10.9039
▁ముగింపు	-10.9039
▁పుట్టినరోజు	-10.904
▁ఆరుగురు	-10.9042
▁జీప్	-10.9046
▁ఎద్దేవా	-10.9049
▁క్యూసెక్కుల	-10.9049
▁పరీక్షించ	-10.905
▁అందర్నీ	-10.905
▁బాయ్	-10.905
▁స్తుతుల	-10.9051
▁స్వభావ	-10.9054
▁లోకంలో	-10.9055
▁పట్టుకున్నాడు	-10.9057
▁దుకాణ	-10.9057
▁అకౌంట్	-10.9069
▁చెబుతోంది	-10.9069
▁అందువలన	-10.9069
▁మమ్మీ	-10.907
▁కలిశారు	-10.9071
వ్రత	-10.9071
▁బ్యాటరీ	-10.9072
▁వంగ	-10.9072
ాడన్న	-10.9073
▁నదుల	-10.9073
▁భూసేకరణ	-10.9079
▁గరిష్ఠ	-10.9079
▁డ్రింక్	-10.9079
▁టీఎంసీల	-10.9081
▁సూచిస్త	-10.9086
▁గౌతమ	-10.9093
▁రంగాల్లో	-10.9094
క్కడికి	-10.9098
▁రిలయన్స్	-10.9099
▁చనువు	-10.91
▁స్వాహా	-10.9105
▁నిర్ణయించుకున్న	-10.9107
▁ఆకాంక్ష	-10.9109
▁దుస్తుల	-10.9109
ధేయ	-10.911
▁సుమతి	-10.911
▁త్రైమాసికంలో	-10.9113
పీసీ	-10.9114
▁300	-10.9116
▁దొర్ల	-10.9118
▁రజనీ	-10.9119
▁మెల్లిగా	-10.9119
▁ట్రీట్	-10.912
▁డ్రగ్స్	-10.9129
▁తయారుచేసే	-10.9143
స్ర్ట	-10.9145
▁వ్యవహరిస్త	-10.9147
ాధ్యక్ష	-10.9149
ప్రపంచవ్యాప్తంగా	-10.915
▁బీహార్	-10.915
▁మర్నాడు	-10.9152
▁కఠినంగా	-10.916
▁ఏటీఎం	-10.916
▁బెయిల్	-10.916
▁పోషిస్త	-10.9164
▁అనుకోకుండా	-10.9165
▁అహల్య	-10.917
▁మార్పిడి	-10.917
▁సీసా	-10.9175
▁అయ్యాక	-10.9177
ధారణ	-10.9177
▁దక్షిణాఫ్రికా	-10.918
▁గార్డెన్	-10.918
తానని	-10.9181
▁గుంపు	-10.9183
▁బాలుడి	-10.9185
ువుల	-10.9185
▁ఆశ్రయ	-10.9195
పెడుతున్న	-10.9197
డెడ్	-10.9203
▁కోరుతున్న	-10.9205
▁ఉపాధ్యాయుల	-10.9207
▁పెదాల	-10.9208
▁కన్నారావు	-10.921
▁యశోద	-10.921
క్కరలేదు	-10.9211
▁సీరియల్	-10.9213
▁బీచ్	-10.9217
▁చల్లార	-10.9218
▁అర్బన్	-10.9221
▁కాకతీయ	-10.9222
▁మూడవ	-10.9226
▁జరిపించ	-10.9227
▁చిల్లర	-10.9234
▁క్రిమినల్	-10.9241
ొద్ద	-10.9243
▁బలహీనత	-10.9245
▁పరికరాల	-10.9246
ాదులు	-10.9247
డాక్టర్	-10.9248
▁బెంగాల్	-10.9249
▁చేస్తామన్నారు	-10.925
▁సాంస్కృతిక	-10.9251
▁కిందికి	-10.9254
▁చేస్తున్నామని	-10.9255
▁స్కూటర్	-10.9261
▁ఫంక్షన్	-10.9261
▁ఉభయ	-10.9262
బొమ్మ	-10.9266
▁ఒకింత	-10.9269
▁దుస్తులు	-10.9272
▁విచ్చేయ	-10.9274
▁గౌడ్	-10.9274
జేసి	-10.9275
▁అందజేస్త	-10.9276
▁యిప్పుడు	-10.928
▁తీవ్రమైన	-10.9281
▁నూట	-10.9281
రెన్స్	-10.9285
▁ఆశ్రిత	-10.9292
▁బెల్లం	-10.9295
▁విపరీతంగా	-10.9297
ుకోవడమ	-10.9301
▁గాయాల	-10.9301
O	-10.9302
▁ఫ్యూ	-10.9303
▁ధన్	-10.9305
అతని	-10.9309
దలచ	-10.9309
▁ఇందర్	-10.9311
▁కల్పన	-10.9317
కళ్యాణ	-10.9322
▁అశ్విన్	-10.9323
▁బిల్డింగ్	-10.9323
▁నిర్ణయాలు	-10.9328
క్రింద	-10.9331
▁ఇచ్చేందుకు	-10.9333
పోతుంటే	-10.9333
▁విడిపించ	-10.9334
▁ఎస్సై	-10.9335
▁మృతుల	-10.9339
వంతమైన	-10.934
▁నమస్కరించ	-10.9343
▁మానవుల	-10.9346
▁క్వా	-10.9351
▁ఉలిక్కిపడ్డ	-10.9354
▁సమన్వయ	-10.9354
▁కొత్తిమీర	-10.9354
▁గిరిజనుల	-10.9361
▁సూచించింది	-10.9362
▁రేంజ్	-10.9364
కొత్త	-10.9365
▁పీఠ	-10.9367
క్షేత్ర	-10.9368
పోతాడు	-10.9372
▁సమస్యలపై	-10.9373
▁అశ్వినుల	-10.9377
ంటావ్	-10.9386
▁ఐక్య	-10.9386
▁బొగ్గు	-10.94
అయినా	-10.94
▁రాయితీ	-10.9402
ుకోగల	-10.9403
▁ప్రొడక్షన్	-10.9405
▁రిసీవర్	-10.9405
పరిచా	-10.9407
▁జరిగిపోయింది	-10.941
▁ప్రారంభమైన	-10.9411
▁సన్మాన	-10.9414
▁అంబేద్కర్	-10.9416
▁నాట్య	-10.9416
▁రోబో	-10.9416
సత్య	-10.9417
మళ్ళీ	-10.9418
సీబీ	-10.942
▁పదకొండు	-10.9426
▁స్థాపించ	-10.9427
▁జరుగుతాయ	-10.9432
▁సాయంకాలం	-10.9434
రాజ్య	-10.9435
▁కలుసుకున్న	-10.9437
▁ఉల్లి	-10.9444
▁తూర్పుగోదావరి	-10.9447
▁సేవించ	-10.9448
▁లక్షణాలు	-10.9448
▁వ్రాయ	-10.945
▁సమాచారాన్ని	-10.9456
▁ప్రయోగించ	-10.9457
▁పథకాన్ని	-10.9457
▁ఎంతమంది	-10.9473
వెళ్ల	-10.9476
సుందర	-10.9478
▁అరకప్పు	-10.9478
▁పెరిగే	-10.948
పెడతా	-10.9488
▁అక్కడికక్కడే	-10.9488
▁చేనేత	-10.9489
▁ఓడించ	-10.9493
▁మల్లె	-10.9496
▁వుందో	-10.95
▁తీగ	-10.9502
▁సోనియా	-10.9503
▁వహిస్తున్న	-10.9504
▁తొమ్మిద	-10.9504
▁జీలకర్ర	-10.9509
▁యూనియన్	-10.9509
▁కోడలు	-10.9513
▁పండగ	-10.9513
ఏదో	-10.9513
▁కౌన్సెలింగ్	-10.952
షియల్	-10.9524
▁చంద్రశేఖర్	-10.953
▁శ్రీశైలం	-10.953
▁స్టాక్	-10.9533
▁అభిప్రాయాల	-10.9533
▁బారిన	-10.9534
మనోహర	-10.9536
▁కలెక్టరేట్	-10.9541
▁వెంకయ్యనాయుడు	-10.9542
▁అంతస్తు	-10.9545
▁అక్రమంగా	-10.9549
▁స్వేచ్ఛ	-10.9551
▁అనిపిస్తుంది	-10.9552
▁చిరాకు	-10.9552
▁మనోజ్	-10.9554
▁పొలాల	-10.9555
▁బ్యానర్	-10.9555
ుకుందామన	-10.9561
▁అర్ధంకాలేదు	-10.9562
▁పొందుతున్న	-10.9562
▁అడ్రస్	-10.9562
▁అమాయకంగా	-10.9563
▁పదవుల	-10.9565
▁కన్వీనర్	-10.9572
▁డైరీ	-10.9573
▁మాల్యా	-10.9574
▁తట్టుకోలేక	-10.958
▁నెరవేర	-10.9582
▁పిరికి	-10.9582
▁సహజంగా	-10.9591
▁టీఎస్	-10.9592
N	-10.9604
ప్లీజ్	-10.9608
▁ఏముంది	-10.9611
▁ఈమేరకు	-10.9615
▁తయారై	-10.9616
▁రాజేందర్	-10.9618
▁గెలవ	-10.9623
▁వూప	-10.9623
▁పట్టుకో	-10.9627
▁పడుతోంది	-10.9631
దొంగ	-10.9633
▁కన్య	-10.9644
▁అకస్మాత్తుగా	-10.9646
▁ఐపీఎల్	-10.9646
▁నిఫ్టీ	-10.9646
▁అభిషేక	-10.9648
▁వెంటాడ	-10.9651
▁క్లోజ్	-10.9657
▁నాగేశ్వరరావు	-10.9659
▁జాయింట్	-10.9661
▁పనిచేస్తు	-10.9667
▁ప్రజాస్వామ్య	-10.9668
▁నెలకొన్న	-10.9669
▁నిలుచు	-10.9671
▁పూర్తిచేసి	-10.9672
పీఎఫ్	-10.9673
▁శేఖర్	-10.9679
▁పనికిరా	-10.9679
▁అవసరమైతే	-10.9681
వాడవు	-10.9691
▁ఉద్దేశించి	-10.9695
▁భార్యాభర్తల	-10.97
▁విప్లవ	-10.97
▁కాబోలు	-10.97
ాద్రి	-10.9703
ుతుందా	-10.9704
▁మానేసి	-10.9708
▁వ్యంగ్య	-10.9711
▁వర్గీకరణ	-10.9712
డియర్	-10.9714
▁ఆవిష్కరించారు	-10.9714
▁జులై	-10.9714
వైపే	-10.9719
ుతోంద	-10.9721
▁దృశ్యాల	-10.9732
▁హరీష్	-10.9732
▁నర్సింహ	-10.9732
▁వినగానే	-10.9736
▁రాక్షసుల	-10.9739
▁పయన	-10.974
▁మహ్మద్	-10.9742
▁నడిపి	-10.9743
▁రజనీకాంత్	-10.9743
▁గడిపి	-10.9743
▁తయారుచేసి	-10.975
▁ఖరీదైన	-10.9753
▁విరుద్ధ	-10.9753
▁పోలిక	-10.9754
▁వినయంగా	-10.9759
▁కుతూహలం	-10.9764
▁కరెంట్	-10.9768
▁ప్రబంధ	-10.9768
▁పర్సనల్	-10.9774
▁తగిల	-10.9775
at	-10.9775
▁ధీమా	-10.9775
▁బయటపడ్డ	-10.9775
యోగ్య	-10.9777
▁అసహ్య	-10.9778
▁అనిపిస్తోంది	-10.9778
ఏమైంది	-10.978
▁డీలర్	-10.9781
▁ఇప్పించ	-10.9782
▁వేయాలి	-10.9783
▁సరిపోతుంది	-10.9783
▁పనిచేసిన	-10.9792
నిమిషాల	-10.9792
▁నినాదాలు	-10.9794
▁సుదీర్ఘ	-10.9796
▁పెండింగ్	-10.9796
▁కావల్సినవి	-10.9807
అక్కడ	-10.9813
▁వినోద	-10.9816
▁ప్రతిరోజూ	-10.9818
▁గిన్నెలో	-10.9818
▁స్థలాల	-10.9818
రంభ	-10.982
▁మృత్యువు	-10.9822
▁యాంటీ	-10.9825
▁డీఏ	-10.9829
▁యుద్ద	-10.983
గోపాల్	-10.9832
చెట్టు	-10.9832
▁మూర్ఖ	-10.9839
▁పరస్పర	-10.9839
▁లక్ష్మణ	-10.9843
▁ఆధారపడి	-10.9847
▁చకచక	-10.985
▁మాణిక్	-10.985
▁వెలుగులోకి	-10.9852
▁తెరకెక్కించ	-10.9852
▁వేగవంత	-10.9855
▁బెస్ట్	-10.9856
▁శవాన్ని	-10.9861
▁అమ్మకాలు	-10.9862
▁విడిచిపెట్ట	-10.9866
▁బిగుసుకు	-10.9872
▁చింద	-10.9874
క్ష్య	-10.9875
▁ట్రాక్	-10.9879
▁మద్య	-10.9882
▁విశ్వనాథ	-10.9882
▁రిపోర్టు	-10.9883
ీశ్వర	-10.9885
ృష్ట	-10.9892
▁మయూష	-10.9894
▁శివరావు	-10.99
▁అవస్థ	-10.9903
▁తెలుగుదేశం	-10.9904
▁వరండాలో	-10.9905
▁అనుకుంటే	-10.9906
▁వెలుగ	-10.9907
హింస	-10.9909
▁నువ్వె	-10.9913
▁గులాబీ	-10.9915
▁వృద్ద	-10.9916
▁డేట్	-10.9918
▁హంతకుడ	-10.9928
▁చేతులూ	-10.9929
▁ఛాన్స్	-10.9934
▁స్మగ్లర్	-10.9937
భ్ర	-10.994
తెలి	-10.9947
▁కాశ్మీర	-10.9948
▁ఆచార్య	-10.9948
▁స్వార్ధ	-10.9953
ిద్దరు	-10.9957
మౌత	-10.9958
▁శాస్త్రవేత్త	-10.996
▁టీస్పూను	-10.997
▁భరోసా	-10.997
▁అన్నపూర్ణ	-10.997
దృష్ట	-10.9974
▁హాజరైన	-10.9981
▁సిఫారసు	-10.9981
▁యాజమాన్య	-10.9982
▁చిలిపి	-10.9985
▁సాగించ	-10.9986
▁అలరించ	-10.9988
▁మగవాళ్ళ	-10.9988
▁చుట్టుపక్కల	-10.9992
▁లేకుంటే	-10.9996
▁సమావేశానికి	-10.9997
▁నెలకొల్ప	-11.0003
▁ద్యులోక	-11.0003
▁సిద్దిపేట	-11.0003
▁కష్టపడ	-11.0008
▁విధాల	-11.001
▁మార్క్	-11.0016
▁ఉన్నతాధికారుల	-11.0016
▁టార్గెట్	-11.0025
▁మరొకటి	-11.0028
పూజ	-11.0031
▁వీర్రాజు	-11.0036
▁ఏదయినా	-11.0036
▁వరుణ్	-11.0039
▁మారుతి	-11.0043
ప్రభుత్వ	-11.0045
▁కన్నీటి	-11.0047
▁నోటీసు	-11.0047
▁పుల్లారావు	-11.0047
▁గనుక	-11.0049
▁అబ్దుల్	-11.0058
▁విశిష్ట	-11.0058
▁వేలాది	-11.0068
బుచ్చ	-11.0068
▁స్వాతంత్ర్య	-11.0069
▁దుబాయ్	-11.0069
▁తండ్రీ	-11.0069
▁చొక్కా	-11.007
▁ఖర్చ	-11.0073
▁రప్పించ	-11.0074
▁ఇస్తామని	-11.0076
▁హోమ్	-11.0078
▁మెలకువ	-11.0081
▁బానిస	-11.0083
▁దీపిక	-11.0084
▁విగ్రహాల	-11.0085
ద్వయ	-11.0087
▁ఐదో	-11.0089
▁తరబడి	-11.0089
▁బర్త్	-11.0091
▁చూపిస్తూ	-11.0097
▁శ్రేయ	-11.0104
▁గూండా	-11.0107
▁బాణలిలో	-11.0113
▁ప్రతిపాదించ	-11.0114
▁సందర్భంలో	-11.0115
▁తెలుసుకుని	-11.0117
▁చార్జీల	-11.0119
▁మూడ్	-11.0123
▁స్టోరీ	-11.0124
▁దెబ్బతిన్న	-11.013
▁బలగాల	-11.0138
▁చూపిస్తా	-11.0139
▁ఖండించ	-11.0141
వర్గాల	-11.0146
▁అన్నాడీఎంకే	-11.0147
▁మధుమేహ	-11.0147
▁నెరవేర్చ	-11.0148
▁వేయడం	-11.0151
▁వేధించ	-11.0151
▁విదేశాల్లో	-11.0153
ఎవడ	-11.0158
▁సాక్షి	-11.016
▁క్వార్టర్స్	-11.0171
ాలనిపించింది	-11.0174
▁కచ్చితంగా	-11.018
▁నీరసంగా	-11.018
▁స్వతంత్ర	-11.0181
▁లైటు	-11.0182
▁పదివేల	-11.0183
కారణం	-11.0186
▁ఎగుర	-11.0188
▁చేపట్టాలని	-11.0191
▁అధిగమించ	-11.0191
▁దుండగులు	-11.0191
▁సూర్యుని	-11.0193
▁మరొకరి	-11.0195
▁ఎంజాయ్	-11.0203
▁స్పూను	-11.0203
▁మంత్రివర్గ	-11.0203
▁ద్రవ	-11.0208
▁వేసుకో	-11.021
▁స్క్రీన్	-11.0214
▁నిర్వాహకులు	-11.0215
en	-11.0217
ాశ్రయ	-11.0217
▁నాగరాజు	-11.0225
▁వెంగమాంబ	-11.0225
▁స్టోర్	-11.0226
▁అరుస్తూ	-11.0232
▁బ్లూ	-11.0233
▁టిఫిన్	-11.0236
▁మాధవ్	-11.0236
▁వాదించ	-11.0236
▁యొక్క	-11.0242
▁ప్రాధాన్యత	-11.0242
▁ఐడియా	-11.0245
▁అవకాశాన్ని	-11.0248
▁తెల్లవారుజామున	-11.0248
▁పరుశురాం	-11.0248
▁కోర్కె	-11.0248
▁లెక్చరర్	-11.0259
▁దసరా	-11.026
▁చూడటానికి	-11.026
▁బాగుంది	-11.0261
▁స్వంత	-11.0262
▁అభినందించారు	-11.0263
▁చేస్తోందని	-11.0264
▁కోరుకుంటున్న	-11.0269
▁పొజిషన్	-11.027
▁ఆభరణాల	-11.027
▁బిజెపి	-11.027
▁భాషల్లో	-11.0271
▁పేషెంట్	-11.0281
▁బ్రహ్మాజీ	-11.0282
▁గాయాలయ్యాయి	-11.0282
ాధికారుల	-11.0289
▁జొ	-11.0291
ొచ్చాయి	-11.0297
▁తీసుకోవాల	-11.0299
ేసాడు	-11.0314
▁లొంగ	-11.0314
వేశా	-11.0315
▁మార్కెటింగ్	-11.0315
▁బెంగ	-11.0318
▁సర్దుకు	-11.0318
▁పనుల్లో	-11.0319
▁చెల్లించాలని	-11.032
▁జరుగుతోంద	-11.0324
▁కాజల్	-11.033
▁అంత్యక్రియల	-11.0338
▁రాష్ట్రవ్యాప్తం	-11.0338
ునుగాక	-11.0349
▁వుండిపోయాడు	-11.0349
▁కుంభకోణ	-11.035
▁వాసంతి	-11.035
▁మేనేజింగ	-11.0351
వేగం	-11.0351
▁షాపింగ్	-11.0352
▁బిక్క	-11.0352
▁శిష్య	-11.0354
▁వ్యవహార	-11.0355
శైల	-11.036
▁చురుగ్గా	-11.0361
▁ఊరుకో	-11.0372
▁హవిస్సు	-11.0372
▁నెంబరు	-11.0372
ప్రాణ	-11.0374
▁తలనొప్పి	-11.0376
▁క్లిక్	-11.0376
▁క్రూర	-11.0378
▁అకాడమీ	-11.0384
▁స్థావర	-11.0385
ురాలై	-11.0392
▁స్వయం	-11.0392
▁నలిగి	-11.0393
▁మృదు	-11.0406
▁గందరగోళ	-11.0407
▁రాజస్థాన్	-11.0409
▁మొత్త	-11.0411
▁చీల్చ	-11.0413
▁దీపావళి	-11.0418
▁శ్రీరాం	-11.0421
భేద	-11.0428
▁కోదండరాం	-11.043
▁సతీష్	-11.043
▁ఆగిపోయాడు	-11.0434
▁నిజాం	-11.0436
▁నిద్రపట్ట	-11.0444
▁పూర్తవ	-11.0444
▁విపక్షాల	-11.0447
▁సమీపించ	-11.0448
▁పంచదార	-11.045
▁ఢీకొట్ట	-11.0454
▁సలహాదారు	-11.0455
▁ఆప్షన్	-11.0457
▁తాగునీటి	-11.0464
▁గెలుచు	-11.0465
▁సంవత్సరానికి	-11.0467
సినిమా	-11.0468
▁యూనివర్శిటీ	-11.0476
▁పాల్పడుతున్న	-11.0482
▁వివాదాస్పద	-11.0487
పూరిత	-11.0488
ఉన్న	-11.0493
▁ఆక్రమించ	-11.0498
▁ఆలస్యమ	-11.0507
▁ధరణి	-11.0507
సుబ్రహ్మణ్య	-11.051
▁త్రివిక్రమ్	-11.051
▁న్యూజిలాండ్	-11.051
▁సన్నివేశాల	-11.051
▁ఇష్యూ	-11.051
▁వేస్తా	-11.051
లేకపోయారు	-11.051
▁ఎదురుచూస్త	-11.0511
▁హొటల్	-11.0511
▁పరిపాలన	-11.0513
▁ఈశ్వర్	-11.0514
▁అంటున్నాడు	-11.0514
తిరిగి	-11.0517
▁జాకెట్	-11.0517
చక్ర	-11.0518
▁కృష్ణారావు	-11.0521
▁దశాబ్దాల	-11.0522
ార్ద	-11.0524
▁ఎప్పుడైనా	-11.0525
▁మహర్షి	-11.0533
▁తీసుకోవాల్సి	-11.0539
▁కాంట్రాక్టర్	-11.0545
▁రీతిలో	-11.0545
▁అనిపిస్త	-11.0553
▁వెంకటేశ్వర్లు	-11.0557
▁రాముని	-11.0559
అమరావతి	-11.0561
▁వుంటున్న	-11.0561
▁కొన్నాళ్ళ	-11.0562
▁ఒంగోలు	-11.0568
▁స్పష్టత	-11.0568
▁చికెన్	-11.0568
▁అహ్మద్	-11.058
▁ప్రేమిస్తున్న	-11.0581
▁పుట్టుక	-11.0585
▁గుండెపోటు	-11.0603
▁ఒక్కోసారి	-11.0608
▁ఫ్యాషన్	-11.0609
▁ఆవిష్కరణ	-11.0615
▁చూసుకుంటా	-11.0624
▁సృజన	-11.0627
▁వీల్లేదు	-11.0627
లేనట్టు	-11.0641
▁వుండవచ్చు	-11.0644
ుండాలి	-11.0646
▁ప్రదేశాల	-11.0647
▁నివారించ	-11.0652
▁ప్రఖ్యాత	-11.0653
ుచున్న	-11.0659
▁మినహాయింపు	-11.0662
▁పారిపోయి	-11.0673
▁ఎలాగూ	-11.0673
▁అందజేయ	-11.0676
క్షేప	-11.0677
▁స్వచ్ఛంద	-11.0681
▁ఆయుధాల	-11.0685
▁అనుమానాలు	-11.0687
▁పీటర్	-11.0687
▁కట్టుకున్న	-11.0689
▁వేస్తే	-11.0691
▁ఆదరణ	-11.0692
▁ఎర్రచందనం	-11.0697
▁ఇంటర్నెట్	-11.0697
వినిపిస్తున్నాయి	-11.0699
▁పసిగట్ట	-11.0699
▁కార్యదర్శుల	-11.0709
▁వ్యూహం	-11.0709
▁రమేశ్	-11.0709
▁హయాంలో	-11.0709
▁కావలసినవి	-11.0713
▁సాలోచనగా	-11.0721
▁స్పందిస్తూ	-11.0721
▁మరికొంత	-11.0721
▁కళ్యాణి	-11.0722
▁ఇదివరక	-11.0722
▁దినోత్సవం	-11.0722
▁క్రేజ్	-11.0724
▁సైజు	-11.0725
▁విద్యుత్తు	-11.0728
▁పండిత	-11.0731
▁లిఖిత	-11.0732
దేమిటో	-11.0735
▁నగరాల్లో	-11.0735
వెంకట	-11.0741
▁శీతల్	-11.0744
▁మేయర్	-11.075
▁దొంగతనం	-11.0751
▁హడావిడి	-11.0756
▁పిక్చర్	-11.0756
▁హెచ్చరిస్త	-11.0757
▁నాలుగేళ్ల	-11.0758
▁అమితాబ్	-11.0768
▁ఒబామా	-11.0768
ాగ్ని	-11.0769
▁ఉత్సాహ	-11.0772
▁నడప	-11.0772
▁ఇంజన్	-11.0778
▁కుప్పకూల	-11.078
▁ప్రత్యామ్నాయ	-11.078
▁ఆధ్యాత్మిక	-11.078
▁గ్రీ	-11.0783
▁చిట్టి	-11.0789
▁వారంతా	-11.0799
▁అరవై	-11.0804
▁నిర్ధారణ	-11.0805
▁బెదిరింపు	-11.0806
▁భరత	-11.0807
▁సంతోషించ	-11.0808
▁సామ్రాజ్య	-11.0816
▁క్యాన్సర్	-11.0816
▁పెన్షన్	-11.0819
బోతోంద	-11.0823
వందల	-11.083
▁నిముషం	-11.0839
ెక్కువ	-11.0847
▁నర్సు	-11.0851
▁సహితము	-11.0852
▁సంపాదన	-11.0852
▁ప్రమీల	-11.0853
▁బేబీ	-11.0863
▁గంజాయి	-11.0863
ుకోవాలన్న	-11.087
▁కేటాయి	-11.0871
▁వత్త	-11.0874
▁ఎందరో	-11.0876
▁ఏలూరు	-11.0879
▁అధికారికంగా	-11.0882
▁ఈశ్వర	-11.0886
▁నామినేషన్	-11.0899
▁మహాసభ	-11.0899
▁దేవినేని	-11.09
▁స్పర్శ	-11.09
▁సిస్టర్	-11.0901
▁గోల్డ్	-11.0902
▁ఎక్స	-11.0902
▁మిలియన్	-11.0905
▁విషయాల్లో	-11.0907
▁తాతయ్య	-11.0909
▁మదన్	-11.0913
▁కొల్ల	-11.0919
▁విమానాల	-11.0926
డెంట	-11.0932
తర్వాత	-11.0933
▁దక్షిణాది	-11.0938
▁నీలిమ	-11.0947
▁మధ్యప్రదేశ్	-11.0948
▁తరంగ	-11.0955
▁గొలుసు	-11.096
▁సమావేశాల	-11.0961
▁త్రిపుర	-11.0961
▁సహకరి	-11.0967
▁ఆత్మహత్యాయత్న	-11.0972
▁విషమంగా	-11.0972
▁కల్తీ	-11.0976
▁కొనుగోళ్ల	-11.0984
▁తెలిపాయి	-11.0984
▁మగాడి	-11.0984
.500	-11.0986
▁స్తోతల	-11.0991
▁సమావేశమయ్యారు	-11.0996
▁కాపలా	-11.0999
▁సారించ	-11.1
దేముడ	-11.1001
▁పెరగడం	-11.1003
▁డీఎస్పీ	-11.1008
▁రఘువీరా	-11.1008
▁తమిళంలో	-11.1013
▁వడ్డించ	-11.1034
▁చేస్తుంటే	-11.1039
▁ఆమోద	-11.1045
చేసుకుంట	-11.1047
▁అడుగుతా	-11.1058
ంతసేపూ	-11.1061
తంత్ర	-11.1064
▁నందమూరి	-11.1069
▁కామెడీ	-11.1069
▁బిహార్	-11.1069
డబ్బు	-11.1073
▁కొద్దిసేపు	-11.1076
▁అబద్ధం	-11.1082
శెట్టి	-11.1082
▁దిద్ద	-11.1087
▁విధులు	-11.1088
▁మిర్చి	-11.1095
▁అర్హుల	-11.1096
▁గురుకుల	-11.1098
ుచున్నావు	-11.11
▁ఆవరించ	-11.1104
పోవడమే	-11.1116
▁నిఖిల్	-11.1118
▁కనుక్కో	-11.112
▁ఏమిటంటే	-11.1121
▁చిత్రీకరించ	-11.1122
▁05:	-11.1126
▁నిద్రపోతున్న	-11.1127
▁రెచ్చగొట్ట	-11.1131
▁బృందాల	-11.1131
▁మ్రోగ	-11.1131
▁కాదన్న	-11.1135
▁సంయుక్తంగా	-11.1143
▁గుప్తా	-11.1143
▁తీసుకురావాల	-11.1149
క్యుల	-11.115
▁బావుండ	-11.115
▁నిల్చున్న	-11.115
▁తప్పించుకో	-11.1155
▁నాణ్యత	-11.1156
▁శంకూ	-11.1156
▁జరుగుతూ	-11.1158
కనెక్ట	-11.1158
▁సిస్టమ్	-11.1168
▁తెలివైన	-11.1169
▁నిలుప	-11.1169
▁పుల్ల	-11.1169
▁నెహ్రూ	-11.118
▁రికార్డ	-11.1203
▁ధ్వంసం	-11.1205
▁ముగ్ధ	-11.1205
గృహ	-11.1205
రోడ్డు	-11.1207
▁విరమణ	-11.121
రత్న	-11.1211
▁ఫౌండేషన్	-11.1217
▁సమాఖ్య	-11.1217
▁పద్దతి	-11.1217
▁దుమ్ము	-11.1227
▁పొదుపు	-11.1229
▁ఎలాగైనా	-11.123
ారాయన	-11.1236
▁ఫాస్ట్	-11.1237
▁కోపమ	-11.124
▁కర్తవ్య	-11.1242
▁వసతి	-11.1242
▁లోకేశ్	-11.1243
▁గుర్తొచ్చింది	-11.1243
▁కళాకారుల	-11.1244
▁విరమించ	-11.1245
▁మసక	-11.1253
▁వైజయంతి	-11.1267
▁అక్కడక్కడా	-11.1267
▁అనుమానాస్పద	-11.1279
▁కావాల్సి	-11.1284
▁భోజనాల	-11.1291
▁హెలికాప్టర్	-11.1292
▁టెండర్ల	-11.1295
▁అధ్యయన	-11.1295
▁వర్కింగ్	-11.1295
▁కంగారుపడ	-11.13
▁సంరక్షణ	-11.1304
▁హతమార్చ	-11.1317
▁అమూల్య	-11.1317
చేసుకొ	-11.1319
C	-11.1329
ఫరవాలేదు	-11.1329
▁విఫలమై	-11.1332
▁తరుణంలో	-11.1342
▁కామినేని	-11.1342
▁స్థలానికి	-11.1343
▁అర్దరాత్రి	-11.1343
▁ఎరుగ	-11.1349
▁వెంట్రుక	-11.1355
▁ఏబీఎన్	-11.1355
▁ఐఏఎస్	-11.1355
▁విలీన	-11.1362
▁ఎట్లా	-11.1364
▁వెంబడి	-11.1373
▁ఉక్రోషం	-11.138
▁అర్ధమై	-11.1383
▁జేబులోంచి	-11.1385
▁పదిరోజుల	-11.1388
▁మలయాళ	-11.1392
▁కాబట్టే	-11.1393
▁శ్రీనగర్	-11.1393
▁సెన్సార్	-11.1393
▁విదేశాంగ	-11.1405
▁మినిస్టర్	-11.1405
▁వధించ	-11.1406
▁గురయ్యారు	-11.1409
గొండ	-11.1411
▁మాత్రాన	-11.1413
▁ఉద్రేక	-11.1418
▁చేసుకోవడానికి	-11.1429
▁స్కూళ్ల	-11.1431
▁సురేంద్ర	-11.1443
▁పన్నీర్	-11.1443
▁గుడిసె	-11.1447
గొడ	-11.1451
▁క్రిందికి	-11.1452
▁నెలాఖరు	-11.1456
ాధికార	-11.1457
▁జ్ఞాపిక	-11.1468
▁యాదాద్రి	-11.1468
▁తీసుకువెళ్ళ	-11.1478
▁నియంత్రించ	-11.1481
▁ఎంతగానో	-11.1482
లక్ష్మీ	-11.1487
▁అనుగ్రహ	-11.1488
▁కూర్చోబెట్ట	-11.1495
▁ఎంసెట్	-11.1499
▁నలుగురూ	-11.1501
▁చెల్లెలి	-11.1502
▁బుద్ధ	-11.1502
▁టెలిఫోన్	-11.1507
▁చుట్టుముట్ట	-11.1507
▁సిద్ధార్థ	-11.151
▁ఛాయ	-11.1517
▁గౌరవించ	-11.1519
▁ప్రోగ్రాం	-11.152
▁పందెం	-11.152
▁ఎస్టేట్	-11.152
▁ప్రదర్శిస్త	-11.152
▁వ్యాఖ్య	-11.1531
▁తీసుకుంటూ	-11.1532
▁అలసట	-11.1533
మాట్లాడ	-11.1536
▁రుణమాఫీ	-11.1545
▁రామాయణ	-11.1545
▁వినిపిస్తోంది	-11.1547
▁జయచంద్ర	-11.1552
▁ఖరీదు	-11.1558
▁వాళ్ళిద్దరి	-11.1558
▁ఇప్పటివరకూ	-11.1577
▁సర్పంచ్	-11.1584
▁ఏకైక	-11.1584
▁భయంకరమైన	-11.1586
▁ప్యాకెట్	-11.1587
▁తెలీద	-11.1594
▁వంతెన	-11.1597
▁నెలరోజుల	-11.1602
▁ఉనికి	-11.1606
▁ఇన్వెస్టర్ల	-11.161
▁భూకంప	-11.161
▁కస్టమర్ల	-11.1612
▁విమర్శించ	-11.1617
▁జగన్నాథ	-11.1623
ుతుండటం	-11.1629
▁వీళ్ల	-11.1631
▁రైల్వేస్టేషన్	-11.1635
▁బ్రతుక	-11.1638
▁డీఎంకే	-11.1648
▁అర్ధమైంది	-11.1651
▁ఖాయమ	-11.166
▁ఉడికించి	-11.1661
▁వృక్ష	-11.1662
▁నిర్దేశించ	-11.1662
▁నియోజకవర్గంలో	-11.1668
▁ప్రిన్సిపాల్	-11.1674
▁బంగళా	-11.1674
▁ఉత్కంఠ	-11.1674
▁సాక్ష్యం	-11.1675
▁ఫుట్	-11.1675
▁తగిలించ	-11.1684
ఐఎం	-11.1684
▁జర్మనీ	-11.1687
▁జవాన్ల	-11.1688
▁ఓదార్చ	-11.169
▁దళాల	-11.1691
▁గణపతి	-11.1693
▁రసాయన	-11.1697
▁చిన్నారావ్	-11.17
▁ట్రాక్టర్	-11.1705
▁యువరాజు	-11.171
▁మైనారిటీ	-11.1713
▁వృధా	-11.1713
▁స్పీడ్	-11.1713
▁తెలియజేస్త	-11.1714
▁ప్రజాపతి	-11.1723
▁ఎవరయినా	-11.1724
▁తీస్తున్న	-11.1738
▁నితిన్	-11.174
దానవు	-11.1749
▁ప్రాంగణంలో	-11.1753
▁సాగుతున్న	-11.1758
▁పోషక	-11.176
▁కనెక్షన్	-11.1766
▁వివాదాల	-11.1773
▁నవ్యాంధ్ర	-11.1779
▁కొనుక్కు	-11.1779
▁దీప్తి	-11.178
▁మావయ్య	-11.1784
▁అక్కినేని	-11.1792
▁త్రిప్ప	-11.1804
▁ముగిసే	-11.1805
▁వివరిస్త	-11.1806
▁కల్పిస్తా	-11.1816
▁పరమేశ్వర	-11.1817
▁పార్వతమ్మ	-11.1818
▁ఎన్నాళ్ళ	-11.1831
▁పరిమళ	-11.1832
▁తెరకెక్కుతున్న	-11.1833
▁మిశ్రా	-11.1845
▁హనుమంతు	-11.1845
▁గడిపే	-11.1846
▁సమావేశాల్లో	-11.1854
▁చనిపోయాడ	-11.1858
▁పరిరక్షణ	-11.1858
▁పద్ధతుల	-11.1858
▁రకుల్	-11.1861
▁ముగియ	-11.1871
▁వెంకట్రావు	-11.1876
▁రెండేళ్ళ	-11.1889
▁కాన్ఫరెన్స్	-11.1898
▁లంచం	-11.19
▁సంతరించ	-11.1902
▁టొమాటో	-11.1911
▁సమావేశమై	-11.1914
▁వెల్లుల్లి	-11.1924
▁ప్రణబ్	-11.1924
▁వైరల్	-11.1925
ాలనుకుంటే	-11.193
▁రిజర్వాయర్	-11.1938
▁ల్యాండ్	-11.1938
▁అబద్దం	-11.1938
▁గంభీర	-11.1951
▁పర్యవేక్షణ	-11.1951
▁జ్వాల	-11.1952
▁ఏడుగురు	-11.1954
▁వసతుల	-11.1959
▁కారిడార్	-11.1964
▁స్మృతి	-11.1964
▁హుషారుగా	-11.1978
▁అనుమానించ	-11.198
▁సెంటిమెంట్	-11.1991
▁స్టూడియో	-11.1991
▁పంచాయతీరాజ్	-11.1992
tt	-11.1997
▁హ్యాండ్	-11.1997
కొంచెం	-11.2
▁ఎక్కడున్నా	-11.2002
▁అగర్వాల్	-11.2005
▁తపస్సు	-11.2005
▁కాశీచరణ్	-11.2018
▁డ్రైవింగ్	-11.2018
▁రుజువు	-11.2018
▁సభ్యత్వ	-11.2018
▁బజారు	-11.2019
▁ప్రవహిస్త	-11.2022
▁ప్రారంభిస్తా	-11.2023
▁పట్టుబడ	-11.2025
▁క్యారెక్టర్	-11.2031
▁తరగతుల	-11.2033
▁గడియ	-11.2045
▁బంతుల్లో	-11.2045
▁రాబర్టు	-11.2045
▁చప్పట్లు	-11.2045
▁జరుపుతున్న	-11.205
▁దేవాదాయ	-11.2058
▁శ్రీహర్ష	-11.2058
▁బోలెడు	-11.2058
▁రోజంతా	-11.2058
▁అణచ	-11.2061
▁ఎట్టకేలకు	-11.2072
▁ట్విటర్	-11.2072
▁గొర్రెల	-11.2072
▁అధ్యక్షుడిగా	-11.2075
▁ఇనుప	-11.2075
భోజ	-11.2075
▁నంద్యాల	-11.2086
▁ఆధారం	-11.2091
▁ధ్యాన	-11.2092
▁పశ్చిమగోదావరి	-11.2099
▁ముసుగు	-11.2099
▁సక్రమంగా	-11.2099
▁నేర్చుకున్న	-11.2104
▁జ్ఞాపక	-11.2104
వ్యక్తి	-11.2109
▁క్రెడిట్	-11.2113
▁టాపిక్	-11.2113
▁వానిని	-11.2113
▁మృగ	-11.2125
▁గబుక్కున	-11.2126
▁సరాసరి	-11.214
▁మురిసి	-11.214
▁వర్కర్	-11.2151
▁తహసీల్దార్	-11.2153
▁అభినందించ	-11.2162
▁తీసుకువచ్చా	-11.2164
▁న్యాయస్థానం	-11.2167
▁ముఖర్జీ	-11.2167
▁ఆంగ్ల	-11.2168
▁కడుక్కు	-11.2181
▁సౌమ్య	-11.2182
▁మిరియాల	-11.2191
▁సాంబశివరావు	-11.2194
▁గల్లంత	-11.2194
▁అరికట్ట	-11.2195
▁ప్రభావిత	-11.22
▁ఎడిటర్	-11.2208
దొర	-11.2215
▁ఆకట్టుకుంట	-11.2221
▁సంస్కరణల	-11.2222
▁మాఫియా	-11.2222
▁కణాల	-11.2226
▁ముందస్తు	-11.2227
ప్రయత్న	-11.223
▁అస్వస్థత	-11.2236
▁సమీకరించ	-11.2239
▁ఖర్మ	-11.2239
▁మాంసం	-11.2239
▁కుంకుమ	-11.2242
▁హాలీవుడ్	-11.2249
▁బొత్తిగా	-11.2249
▁డీజిల్	-11.2249
▁విద్యార్ధి	-11.2249
▁ఆచూకీ	-11.2249
▁మెగావాట్ల	-11.225
▁అంతేకాకుండా	-11.2263
▁రెండింటి	-11.2274
▁సర్జరీ	-11.2291
▁సోదాలు	-11.2291
▁కలుస్త	-11.2293
▁విపరీతమైన	-11.2294
▁ఎరువుల	-11.2294
▁ఫిలిం	-11.2295
నట్టయింది	-11.2297
▁ఫ్రిజ్	-11.2305
▁సామాను	-11.2307
▁బరువ	-11.2311
▁ఆవిష్కరించ	-11.2313
▁అనడిగాడు	-11.2318
▁సాగునీటి	-11.2318
▁దేవస్థానం	-11.2319
▁స్వేచ్చ	-11.2319
▁కొద్దిరోజుల	-11.2332
▁ప్రోగ్రామ్	-11.2332
▁అవినాష్	-11.2332
▁మహిమ	-11.2338
▁నిరుద్యోగ	-11.2338
ేటంత	-11.2339
ెన్సు	-11.234
▁అమాంతం	-11.2346
▁ప్రణయ	-11.2347
▁అతీత	-11.2347
▁పరిషత్	-11.2349
▁పర్సన్	-11.2351
▁లింక్	-11.2353
కోడల	-11.2357
భ్యంతర	-11.2358
▁ధ్వజమెత్తారు	-11.236
▁మురళి	-11.236
▁శ్రుతి	-11.236
▁ఫీలింగ్	-11.2364
▁దొరికా	-11.2366
▁పేల్చ	-11.2369
▁అధ్యక్షతన	-11.237
ెకరాల	-11.2371
▁ఫలించ	-11.2373
▁అద్దాల	-11.2377
▁రామదాసు	-11.2379
కుమార	-11.2394
▁పొడిగించ	-11.2394
▁ఠాకూర్	-11.2402
▁మిశ్రమాన్ని	-11.2402
▁సిఇఒ	-11.2402
▁ఆతిథ్య	-11.2402
▁వైభవంగా	-11.2416
▁ధనుష్	-11.2417
▁జ్యూ	-11.2418
▁రవిచంద్ర	-11.242
▁సంపాది	-11.2426
▁ఎన్నడూ	-11.2433
▁దత్తత	-11.2434
▁పట్టించుకోవడం	-11.2439
▁పురాణ	-11.2439
▁కవరు	-11.244
▁అతిపెద్ద	-11.2447
▁రుతుపవన	-11.2458
▁సంక్షోభ	-11.2458
▁అప్పారావు	-11.2461
▁ప్రత్తిపాటి	-11.2472
▁కార్యాచరణ	-11.2472
▁నాలుగైదు	-11.2486
▁వీలైనంత	-11.2486
▁జాప్యం	-11.25
▁ఏర్పరచ	-11.25
▁జయదేవ్	-11.2504
▁ఏర్పాట	-11.2504
▁ఆహుత	-11.2504
▁లీడర్	-11.2507
▁డాక్టర	-11.2513
▁తక్షణమే	-11.2514
▁బురద	-11.2515
▁మౌనిక	-11.2516
▁షర్టు	-11.2529
▁అభ్యంతరాల	-11.2531
మయింద	-11.2536
▁ఏవేవో	-11.2543
▁భరణి	-11.2543
▁తెలియజేయ	-11.2546
శేష	-11.2546
▁అనుసరిస్త	-11.2548
వేంకటేశ	-11.2553
▁వృద్ధుల	-11.2554
▁సౌదామిని	-11.2557
▁రాకపోకల	-11.2557
▁కోడెల	-11.2557
▁గ్యాంగ్	-11.2562
▁మందలించ	-11.2569
▁అమల్లోకి	-11.2571
▁గార్డు	-11.2573
▁చూపిస్తున్న	-11.2579
▁వాయిస్	-11.2579
▁వదిలేశా	-11.2581
▁వెలుతురు	-11.2585
క్రితం	-11.2588
▁ఉస్మానియా	-11.2599
▁శ్రద్ద	-11.26
▁నిర్వాహ	-11.2602
పారిశ్రామికవేత్త	-11.2613
▁చాంబర్	-11.2614
▁బహుమతుల	-11.2615
▁పంపిస్తా	-11.2624
▁ఇమేజ్	-11.2628
▁కుమారుడి	-11.2629
▁మైనర్	-11.2656
▁అంగుళాల	-11.2657
▁పక్షుల	-11.2664
▁నిర్ణీత	-11.2671
▁వడదెబ్బ	-11.2671
▁అలుముకు	-11.2675
▁టైగర్	-11.2675
▁వాల్మీకి	-11.2685
▁నిర్భయ	-11.2687
▁యాక్స	-11.2689
▁వెల్లడైంది	-11.27
▁షరీఫ్	-11.27
▁ఫ్రాన్స్	-11.2704
దర్శించుకున్నారు	-11.271
▁సిరిసిల్ల	-11.2714
▁తాపీగా	-11.2715
▁కార్యవర్గ	-11.2716
పరీక్ష	-11.2718
▁సామర్థ్య	-11.2722
▁శివాజీ	-11.2729
▁వైజాగ్	-11.2743
▁సడన్	-11.2745
▁ప్రసాదించుము	-11.276
జీవితం	-11.2762
మండపం	-11.2768
▁పరిజ్ఞానం	-11.2772
▁పుణె	-11.2772
▁మర్డర్	-11.2774
▁జీవితాంతం	-11.2775
▁హీన	-11.2785
▁పటిష్ట	-11.2788
▁చేర్పించ	-11.2788
▁శాసన	-11.2799
▁శస్త్రచికిత్స	-11.2801
▁ప్రవీణ్	-11.2801
▁మెకానిక్	-11.2801
▁రాజేశ్వరి	-11.2804
▁ద్యావాపృథ్వుల	-11.2816
▁ర్యాంక్	-11.2816
▁నడుపుతున్న	-11.2818
స్పెక్ట	-11.2828
▁ఒప్పించ	-11.283
▁పిస్టల్	-11.283
▁చందూ	-11.2831
▁సహచర	-11.2838
ింపబడ	-11.2843
▁ప్రవహించ	-11.2845
▁మేధావుల	-11.286
▁గబగబ	-11.2862
▁కృత్రిమ	-11.2874
▁కుర్రాడి	-11.2875
▁సిద్ధాంత	-11.2875
▁కైలాస	-11.2878
▁గడిచాయి	-11.2889
▁టీపీసీసీ	-11.2889
▁మధుసూదన	-11.2889
▁తుపాకీ	-11.2889
▁యనమల	-11.2889
▁అనువాకము	-11.2889
▁బీరువా	-11.2889
గలుగుతున్నా	-11.2891
▁మధ్యాహ్న	-11.2897
▁ఆసరా	-11.2899
▁చిదంబరం	-11.2903
▁ప్రసవ	-11.2912
బయట	-11.2918
▁రెట్టింపు	-11.2918
▁వగైరా	-11.2918
▁మనసంతా	-11.2918
▁స్థలాన్ని	-11.2919
▁ఏడుస్తున్న	-11.292
▁తీసికెళ్ళ	-11.2926
▁ప్రాతిపదిక	-11.2933
▁సంపన్న	-11.2933
▁వారసత్వ	-11.2934
▁దుకాణాల	-11.2936
▁అల్పపీడన	-11.2948
▁ఈక్విటీ	-11.2948
ెళ్ళి	-11.295
▁జోలికి	-11.2954
వాసుల	-11.2954
▁ఉపసంహరించ	-11.2962
▁డాక్యుమెంట్	-11.2977
▁మధురిమ	-11.2979
▁పతాక	-11.2985
▁నరేంద్రమోదీ	-11.2992
ాలనుకునే	-11.2999
▁దృష్ట్యా	-11.3007
▁అశ్వముల	-11.3014
▁బోధపడ	-11.3019
▁విద్యాసంస్థల	-11.3022
▁దయాకర్	-11.3022
▁లక్నో	-11.3022
▁సూక్ష్మ	-11.3023
▁నిట్టూర్పు	-11.3037
▁సందర్బంగా	-11.3037
▁ఓపెనర్	-11.3037
▁టేబిల్	-11.3037
▁గర్ల్	-11.3049
ీసెంట్	-11.3051
▁శంషాబాద్	-11.3051
▁పాలమూరు	-11.3052
▁సోలార్	-11.3067
▁పాఠాలు	-11.3067
▁పోస్టుమార్టం	-11.3081
▁బ్యాంకింగ్	-11.3081
▁ఎలుక	-11.3086
▁స్థానము	-11.3095
▁ఎత్తిపోతల	-11.3096
▁పావుకప్పు	-11.3096
▁పట్టిసీమ	-11.3096
▁ప్రమాణాల	-11.3101
▁కలిశా	-11.3112
▁సుదర్శన్	-11.3126
▁తెలప	-11.3139
▁అప్పుడప్పుడూ	-11.3142
▁హోంమంత్రి	-11.3143
▁చేపడతా	-11.3143
▁కాలక్షేపం	-11.3156
▁రకమైన	-11.3157
▁వెళదాం	-11.316
వాణ్ని	-11.3164
▁జ్ఞాపకాల	-11.3168
▁మృతదేహం	-11.3171
▁వస్తాయని	-11.3172
తెలుసు	-11.3173
▁నీరజ	-11.3173
▁జగదీష్	-11.3187
▁న్యాయవాదుల	-11.3187
▁భద్రాద్రి	-11.3202
▁యత్నించ	-11.3202
▁యార్డు	-11.3217
▁షరతు	-11.3218
▁రోజురోజుక	-11.3223
▁వయస	-11.3228
▁గుర్తుంచుకో	-11.3232
▁కండరాల	-11.3237
▁శ్మశాన	-11.3247
▁కనుగొన్న	-11.3248
▁ఆసుపత్రుల	-11.3262
▁దగ్గర్నుంచి	-11.3263
▁సురేశ్	-11.3263
▁అపోలో	-11.3268
▁నిరుద్యోగుల	-11.3271
▁ప్రత్యర్థి	-11.3278
▁వెళ్తూ	-11.3278
▁మండిపడ	-11.3281
▁వారీగా	-11.3281
▁తలసాని	-11.3281
▁కలెక్షన్	-11.3293
▁గాభరా	-11.3293
▁నినాద	-11.3295
▁కురుస్తున్న	-11.3303
▁రాధాకృష్ణ	-11.3308
▁సవిత	-11.3326
▁యవ్వన	-11.3326
▁నాయిక	-11.3331
▁ద్రవ్య	-11.3338
▁క్రమశిక్షణ	-11.3339
▁తీసుకువెళ్ల	-11.334
▁గడిపా	-11.3345
▁ఫలానా	-11.3355
▁కోడలి	-11.3358
▁విసుర	-11.3359
▁గిర్రున	-11.337
▁ముద్రగడ	-11.3371
▁కదిలించ	-11.3375
▁నాయిని	-11.338
వ్యవస్థ	-11.3381
▁కట్టుబడి	-11.3386
▁గనక	-11.3386
▁ఆఫీసరు	-11.3401
▁సీఈవో	-11.3401
▁షుగర్	-11.3401
▁ఐసీసీ	-11.3401
▁వృత్ర	-11.3401
▁హరీన్	-11.3401
▁అవాక్క	-11.3403
ుతుందేమో	-11.3404
▁దృశ్యాన్ని	-11.3416
▁మెజారిటీ	-11.3416
▁నైతిక	-11.3418
▁భస్మ	-11.3428
▁శుభవార్త	-11.3431
▁సరికాదని	-11.3431
▁కొన్నాళ్ల	-11.3434
▁ప్రీమియం	-11.3447
భర్త	-11.3447
▁ప్రయాణీకుల	-11.3447
▁ఆరాధన	-11.3448
▁తెల్లబోయి	-11.3449
▁ప్రార్థన	-11.3449
▁పత్రాలు	-11.3461
▁ఉత్తరాఖండ్	-11.3462
▁సాంఘిక	-11.3478
▁ఛేదించ	-11.3478
▁పీసీసీ	-11.3478
▁మైదానంలో	-11.3478
పోలీసు	-11.3491
మిమ్మల్ని	-11.3491
▁నిరోధక	-11.3494
▁మృతదేహాల	-11.3494
▁రాబర్ట్	-11.3494
▁ముడుచుకు	-11.3497
▁విస్తరి	-11.3501
▁రమ్మన్న	-11.3509
▁నంబరు	-11.351
▁సంతకాలు	-11.3511
▁బంగాళాఖాతం	-11.3525
▁ఆప్యాయత	-11.354
▁పరోక్షంగా	-11.354
▁విటమిన్	-11.354
▁పైలట్	-11.3562
▁ఢీకొన్న	-11.3572
▁ఆధిక్యం	-11.3588
▁నిశ్చేష్ట	-11.3588
▁పింఛన్	-11.3588
▁మాధవరావు	-11.3588
▁అలజడి	-11.3588
▁మసాలా	-11.3588
▁నుంచున్న	-11.3595
▁ప్రాక్టీస్	-11.3603
▁సూర్యవంశీ	-11.3603
▁డైరెక్షన్	-11.3619
▁ఐఐటీ	-11.3619
▁చెప్తే	-11.3619
▁యాపిల్	-11.362
▁అత్యుత్తమ	-11.3635
▁అనడిగింది	-11.3635
▁విగ్రహాన్ని	-11.3635
▁ఏదన్నా	-11.3635
▁రాష్ర్ట	-11.3647
కిరణ్	-11.3651
ెన్సీ	-11.3658
పద్మ	-11.3659
▁తెస్తా	-11.3661
▁పృధ్వీ	-11.3667
▁కొనియాడారు	-11.3682
▁బ్యూరో	-11.3682
▁వ్యభిచార	-11.3682
▁నిమగ్న	-11.3683
▁లక్కీ	-11.3683
▁స్విచ్	-11.3689
▁ఒప్పుకున్న	-11.369
▁శూన్యం	-11.3691
కావాల	-11.3698
▁ముద్దుగుమ్మ	-11.3698
▁ప్రవాహం	-11.3699
▁ఫైనాన్స్	-11.3714
▁పెదిమల	-11.3715
వెళతా	-11.372
▁భగీరథ	-11.373
▁సంస్కృత	-11.3736
అడిగ	-11.3743
▁శ్యామ్	-11.3746
▁హర్యానా	-11.3746
▁అస్సలు	-11.3746
*	-11.376
▁భాగస్వాముల	-11.3762
▁డెవలప్	-11.3762
▁దావూద్	-11.3778
▁స్పోర్ట్స్	-11.3778
▁మేనమామ	-11.3778
▁రైఫిల్	-11.3778
▁క్రైం	-11.3779
▁నెత్తిన	-11.3784
▁తల్లుల	-11.3785
▁రాయబార	-11.3786
▁శిరీష	-11.3799
▁రూపకల్పన	-11.381
▁కదులుతున్న	-11.3815
▁ముంచెత్త	-11.3825
▁పురస్కరించుకుని	-11.3826
▁మొట్టమొదట	-11.3826
▁కరెంటు	-11.3826
▁అధ్యాయ	-11.3826
▁సంకోచ	-11.3827
▁రిస్క్	-11.3829
బిందువు	-11.3841
▁నిమ్మరసం	-11.3843
▁భవానీ	-11.3843
▁కెనడా	-11.3843
▁ప్రాంతీయ	-11.3845
▁ధీర	-11.3848
▁జడ్పీ	-11.3859
▁క్యాంప్	-11.3859
▁గుజ్జు	-11.3861
▁కాంచన	-11.3864
▁మార్గదర్శకాల	-11.3875
▁బెంగుళూరు	-11.3891
▁ఇంజక్షన్	-11.3891
▁హితవు	-11.3892
సేపట్లో	-11.3896
▁చతుర	-11.3902
▁ఇబ్రహీం	-11.3907
▁కాంప్లెక్స్	-11.3907
▁రెగ్యులర్	-11.3907
▁విభిన్న	-11.3907
▁కాస్సేప	-11.3923
▁సాధ్యమైనంత	-11.394
▁వైశాలి	-11.394
▁సెకన్ల	-11.3957
▁సంగారెడ్డి	-11.3957
▁అహంకార	-11.3957
▁అర్జున	-11.3972
▁ప్రసక్తి	-11.3973
▁బెనర్జీ	-11.3973
▁బ్రిడ్జి	-11.3973
▁చాక్లెట్	-11.3973
▁అసూయ	-11.3977
▁గమనిస్తున్న	-11.3982
▁దెబ్బతిన	-11.3987
▁కనిపిస్తే	-11.3989
▁కనురెప్పల	-11.3989
▁తలతిప్పి	-11.3989
▁ఆస్కారం	-11.3991
▁పారిస్	-11.3998
▁మిశ్రమం	-11.4006
▁డ్రయివ	-11.4009
▁వర్షపాతం	-11.4022
▁టెన్నిస్	-11.4022
▁అలవాట్ల	-11.403
▁చెపితే	-11.4038
▁చెబుతుంట	-11.404
ుణ్ని	-11.4055
▁లక్షణాల	-11.4058
▁విస్మయంగా	-11.4071
▁అగ్నిప్రమాదం	-11.4071
ుతుంటాయి	-11.408
▁అప్లికేషన్	-11.4088
▁రిజిస్ట్రేషన్	-11.4088
▁నయీం	-11.4088
▁యాత్రికుల	-11.409
▁నిలిచారు	-11.4104
▁అయోధ్య	-11.4104
▁కౌగిలించ	-11.4104
నొప్పి	-11.4109
▁దొరికే	-11.4109
▁టాస్క్	-11.4121
▁వెతుకుత	-11.4122
▁లడ్డూ	-11.4137
▁లిఫ్ట్	-11.4137
▁మబ్బు	-11.4162
▁పురాతన	-11.4171
▁కావేరి	-11.4174
శారద	-11.4175
▁నందకిషోర్	-11.4187
▁పరిగణనలోకి	-11.4187
▁వెర్షన్	-11.4188
▁పడుకోబెట్ట	-11.4191
▁సూపరింటెండెంట్	-11.4204
▁నొప్పుల	-11.4206
▁మంజు	-11.4208
వయసు	-11.4228
▁కథానాయిక	-11.4238
▁అపార్ట్	-11.4238
▁విస్కీ	-11.4239
▁రంజిత	-11.4242
నమస్తే	-11.425
▁భౌతిక	-11.4254
▁గల్ఫ్	-11.4255
▁స్కోర్	-11.4257
▁వెల్లువెత్త	-11.4271
▁ఉపరితల	-11.4271
▁కాలేజి	-11.4272
టప్పటికి	-11.4272
▁అమీర్	-11.4273
▁ముమ్మరం	-11.4273
నిర్మాణ	-11.4277
▁చేష్టల	-11.4287
▁నివాళులర్పించ	-11.4288
కూర్చో	-11.4295
ందర్నీ	-11.43
▁అత్యున్నత	-11.4305
▁దూసుకెళ్ల	-11.4322
▁స్టిట్యూట్	-11.4322
▁చిరాగ్గా	-11.4322
▁కెమేరా	-11.4322
▁వంటరిగా	-11.4323
▁రిజిస్టర్	-11.4339
▁గెలిచా	-11.434
▁ఆకస్మిక	-11.4356
▁యూట్యూబ్	-11.4356
▁సెన్సెక్స్	-11.4356
▁విధ్వంస	-11.4356
▁కస్టడీ	-11.4356
▁ద్రోణ	-11.4356
▁శైలి	-11.4357
▁మెగాస్టార్	-11.4373
▁క్వింటా	-11.4373
▁క్లీన్	-11.4373
▁వ్యాఖ్యానించ	-11.4383
▁తీసుకువస్త	-11.4398
▁తీసుకెళ్త	-11.4407
▁ఉక్కిరిబిక్కిర	-11.4407
▁గ్రిడ్	-11.4407
▁మోకాళ్ళ	-11.4408
శ్రీనివాస	-11.4415
▁చారిత్రక	-11.4424
▁ఠక్కున	-11.4424
▁హత్తుకు	-11.4427
▁నిశితంగా	-11.4441
▁ప్రస్తావన	-11.4441
▁అసాధారణ	-11.4441
▁ఆధారపడ	-11.4442
మ్తెన	-11.4444
▁చిట్టబ్బాయి	-11.4458
▁అడ్వాన్స్	-11.4458
▁అంతర్గత	-11.4458
▁పూర్తయ్యే	-11.4458
▁మంచినీళ్ళు	-11.4459
▁దెయ్యం	-11.4459
▁బూడిద	-11.4459
▁ప్రాధాన్య	-11.4462
▁శివనాథరావు	-11.4476
▁త్రైమాసిక	-11.4487
▁అంబాసిడర్	-11.4493
▁అనూరాధ	-11.4493
▁నిలిచాడు	-11.4493
▁కరెక్ట్	-11.4493
▁మరమ్మతు	-11.4494
▁జగదీశ్	-11.4494
▁ఏర్పడ్డ	-11.4497
▁ప్రేమికుల	-11.45
ప్రకాశ	-11.4508
▁అరుంధతి	-11.451
▁తమ్మినేని	-11.451
▁డైలాగ్	-11.451
▁తాపత్రయ	-11.451
▁స్వైన్	-11.451
▁ఎరుపు	-11.4511
▁చనిపోయింద	-11.4516
హృదయ	-11.4519
▁ఆకట్టుకున్న	-11.4524
▁ఎవడు	-11.453
▁బంజారాహిల్స్	-11.4545
▁స్వాతంత్య్ర	-11.4545
▁అలాంటప్పుడు	-11.4545
▁నిస్పృహ	-11.4562
▁ప్రొడ్యూసర్	-11.4562
▁సస్పెన్షన్	-11.4562
▁హన్మకొండ	-11.4562
▁నిర్లక్ష్య	-11.457
▁లైసెన్స్	-11.4579
▁రిమాండ్	-11.4579
▁కిశోర్	-11.4579
▁చనిపోయారు	-11.458
▁డిన్నర్	-11.458
▁గ్లామర్	-11.4597
▁వశిష్ట	-11.4597
▁అంచేత	-11.4597
▁కిన్నెర	-11.4599
▁పన్నెండ	-11.4609
▁ఆహ్లాద	-11.4614
▁విభజించ	-11.4614
▁సూర్యాపేట	-11.4614
▁ఆర్జించ	-11.4617
▁అభినయ	-11.4623
▁ఎంచుకున్న	-11.4625
▁నిశ్శబ్ద	-11.4628
▁పిటిషనర్	-11.4632
▁ట్రోఫీ	-11.4632
▁ప్రాచీన	-11.4632
▁జాతక	-11.4639
▁గ్లోబల్	-11.4649
▁అపూర్వ	-11.4653
న్నింటికీ	-11.4657
▁భరిస్త	-11.4658
పెడ్త	-11.4659
▁ఆర్బీఐ	-11.4667
క్షిప్త	-11.4672
▁హేళన	-11.4684
▁పారేస	-11.4689
▁వేదాంత	-11.469
▁విద్యార్థినుల	-11.4692
▁దుర్వినియోగ	-11.4702
▁ఆఖరు	-11.4703
▁త్రిష్టుప్	-11.4719
▁బస్టాండ్	-11.4719
▁అందుకనే	-11.472
ఖ్యాత	-11.4724
▁సామర్ధ్య	-11.4755
▁పురోహిత	-11.4755
▁రజత	-11.477
▁జమ్మూకశ్మీర్	-11.4772
▁సరీగ్గా	-11.4772
▁వసూళ్ల	-11.4774
▁జీడిపప్పు	-11.479
▁సింపుల్	-11.479
ాలనుకుంది	-11.4791
ఆంధ్ర	-11.4802
▁ఇస్లామిక్	-11.4808
▁వడివడిగా	-11.4808
▁ఆస్ర్టేలియా	-11.4808
▁వివక్ష	-11.4809
▁జగిత్యాల	-11.4826
▁దీనంగా	-11.4826
▁తనయుడు	-11.4828
▁అస్పష్టంగా	-11.4843
▁కమర్షియల్	-11.4843
▁కేశవరావు	-11.4843
▁ఈవెంట్	-11.4845
ుకుంటోంద	-11.4857
▁క్రాంతి	-11.4861
▁జనసేన	-11.4862
ెప్పుడో	-11.4863
▁అహ్మదాబాద్	-11.4879
▁డొనాల్డ్	-11.4879
▁ప్రమేయం	-11.4879
▁నమూనా	-11.488
▁పాఠకుల	-11.4885
▁16-11-201	-11.4897
▁2015-16	-11.4897
▁కరివేపాకు	-11.4897
▁నీటిపారుదల	-11.4897
▁దిగుమతి	-11.4897
▁హిందువుల	-11.4897
▁మసీదు	-11.4897
▁విదిలించ	-11.4897
పదిహేన	-11.4901
▁కబుర్ల	-11.4906
▁ఎనర్జీ	-11.4915
▁చైన్	-11.4916
▁చికాకు	-11.4917
▁మెప్పించ	-11.4928
▁అంబులెన్స్	-11.4933
▁కిషోర్	-11.4933
▁సుహాసిని	-11.4933
▁యోచన	-11.4933
▁ఎదిరించ	-11.4938
▁కస్టమర్	-11.4948
▁గడియారం	-11.4951
▁హైదరాబాదు	-11.4969
▁కొరుక్కు	-11.4969
▁జమ్మూ	-11.4969
▁స్థానాన్ని	-11.497
▁మరుగుదొడ్ల	-11.4987
▁డ్రైవరు	-11.4987
▁పెద్దఎత్తున	-11.4987
▁ప్రభాకర	-11.4988
▁మానేశా	-11.4994
తరువాత	-11.5003
▁ఒళ్ళంతా	-11.5005
▁నివసించ	-11.5005
▁కనిపిస్తు	-11.5013
▁క్షీణించ	-11.5023
▁కరాటే	-11.5024
▁కనిపిస్తూ	-11.5042
▁దశరథ	-11.5042
▁ఇవతల	-11.5042
▁లక్ష్మారెడ్డి	-11.506
▁హుస్సేన్	-11.506
▁కూటమి	-11.506
బాబోయ్	-11.5061
▁మురారి	-11.5061
▁సెలెక్ట	-11.5065
▁మెరుస్తున్న	-11.5074
గౌరవ	-11.5076
▁నలుగుర	-11.5087
మహాత్మ	-11.5089
▁శ్రావణ	-11.5096
▁క్లారిటీ	-11.5096
▁అలంకరణ	-11.5096
▁ద్విచక్ర	-11.5097
తెలంగాణ	-11.5113
▁ఇస్లామాబాద్	-11.5115
▁కేటగిరీ	-11.5115
▁అంతరాయం	-11.5115
▁గోధుమ	-11.5133
▁జలీల్	-11.5133
▁స్టైల్	-11.5134
▁పిల్చ	-11.5142
▁02-11-201	-11.5151
▁19-04-201	-11.5151
▁కాంట్రాక్ట్	-11.5151
▁వెనుదిరిగి	-11.5151
▁అపహరించ	-11.5151
▁గెలిపించ	-11.5152
▁ధృవ	-11.5152
▁చొరబడ	-11.5153
▁కూచున్న	-11.5154
▁15-04-201	-11.517
▁బందోబస్తు	-11.517
▁విశ్వసనీయ	-11.517
▁వైరస్	-11.5171
ాసనం	-11.5179
▁13-04-201	-11.5188
▁దుర్మరణం	-11.5188
▁సవ్యసాచి	-11.5188
▁ఎగుమతుల	-11.5188
▁విరామం	-11.5189
▁హారతి	-11.5191
తండ్రి	-11.5194
▁హాజరవుత	-11.5206
▁సర్వీసెస్	-11.5207
▁పరాజయం	-11.5207
▁ఛాంబర్	-11.5207
▁పేకాట	-11.5207
కామర్స్	-11.5213
▁ఎమ్మార్పీఎస్	-11.5225
▁సెంట్రీ	-11.5225
▁కాంగ్రె	-11.5233
జాగ్రత్త	-11.5243
▁ధన్యవాదాలు	-11.5244
▁రవీందర్	-11.5244
▁వెసులుబాటు	-11.5244
▁ఆత్మవిశ్వాసం	-11.5244
▁పచార్లు	-11.5244
▁02-05-201	-11.5262
▁బలోపేతం	-11.5262
▁కైవసం	-11.5262
▁వృథా	-11.5262
▁శ్రీమంత్	-11.5262
▁దారితీస	-11.5264
▁కొద్దిక్షణాల	-11.5264
▁17-11-201	-11.5281
▁డిటెక్టివ్	-11.5281
▁ప్రోత్సహిస్త	-11.5281
▁వసుధ	-11.5283
▁మునిసిపల్	-11.53
▁ప్రజాప్రతినిధుల	-11.5301
నాయుడి	-11.5307
▁18-04-201	-11.5318
▁పార్లమెంటరీ	-11.5318
▁పద్మనాభ	-11.5318
ేసుకో	-11.5328
▁అభయ	-11.5331
▁ఛైర్మన్	-11.5337
▁టక్కున	-11.5337
▁క్రేజీ	-11.5356
▁ప్రోత్సాహక	-11.5356
ెరుగ	-11.5362
నాయకుల	-11.5369
▁క్రియేట్	-11.5375
▁07-11-201	-11.5393
▁ప్రతిబింబ	-11.5394
▁పార్వతీ	-11.5394
▁సెర్చ్	-11.5394
▁విసిగి	-11.5396
చేత్తో	-11.5398
▁చందన	-11.5399
▁03-11-201	-11.5412
▁04-05-201	-11.5412
▁26-10-201	-11.5412
▁తృచ	-11.5413
▁వర్తించ	-11.5415
▁లభ్యమ	-11.5418
▁తేవాల	-11.5429
▁18-11-201	-11.5431
▁ఆండ్రాయిడ్	-11.5431
▁అడ్మిషన్	-11.5431
▁దరిద్ర	-11.5431
▁అజ్ఞాత	-11.5432
▁వర్ధిల్ల	-11.545
▁వెదిక	-11.5453
▁01-12-201	-11.5469
▁స్నేహితురాలి	-11.5469
▁పాజిటివ్	-11.5469
▁బ్రీఫ్	-11.5469
▁అంగీకరిస్త	-11.5469
▁రెండ్రోజుల	-11.5469
▁ఉప్పూ	-11.5469
▁అస్థి	-11.5476
▁హెల్ప్	-11.5488
▁పకపక	-11.5488
▁నటీనటుల	-11.5507
▁25-11-201	-11.5507
▁యంత్రాంగం	-11.5507
▁సతమత	-11.5507
▁సీక్వెల్	-11.5507
▁రిటైల్	-11.5507
▁తుఫాను	-11.5507
▁సడలి	-11.5526
▁23-11-201	-11.5526
▁ఏకాగ్రత	-11.5526
▁వీడ్కోలు	-11.5526
▁జడేజా	-11.5526
▁తరుణ్	-11.5526
▁ఘోష	-11.5532
▁రమ్మంట	-11.5544
▁ఉల్లంఘించ	-11.5545
▁15-11-201	-11.5545
▁లైసెన్సు	-11.5545
▁విద్వాంస	-11.5545
▁ట్రిపుల్	-11.5545
▁అబద్ధాల	-11.5562
▁05-05-201	-11.5565
▁09-11-201	-11.5565
▁10-11-201	-11.5565
▁రిలీఫ్	-11.5565
▁జ్వర	-11.5572
▁05-11-201	-11.5584
▁23-09-201	-11.5584
▁కాంపౌండ్	-11.5584
▁రికవరీ	-11.5584
▁నిలదీసి	-11.5584
▁స్పాట్	-11.5586
మేడమ్	-11.5588
▁19-11-201	-11.5603
▁26-04-201	-11.5603
▁29-10-201	-11.5603
▁నిలదీశారు	-11.5603
▁సదుపాయం	-11.5603
▁అపరాధ	-11.5604
ైజేషన్	-11.5606
▁ఆధారిత	-11.5622
▁దార్కా	-11.5624
▁కురిసిన	-11.5639
▁పథకానికి	-11.5642
▁స్ర్కీన్	-11.5642
▁సముదాయ	-11.5642
▁సుదీర	-11.5656
డబ్ల్యు	-11.5661
▁నమోదయ్యాయి	-11.5661
▁నితీశ్	-11.5661
▁సెమీస్	-11.5661
▁ఫూల్	-11.5663
▁28-04-201	-11.568
▁30-11-201	-11.568
▁అన్వేషి	-11.5681
బుద్ధి	-11.5685
▁నయనతార	-11.57
▁నిరోధించ	-11.57
▁నాకిష్టం	-11.57
▁లంచ్	-11.5701
▁నిర్ఘాంత	-11.5719
▁06-10-201	-11.5719
▁14-11-201	-11.5719
▁27-04-201	-11.5719
▁అభిషుత	-11.5719
▁మిక్సీ	-11.5719
▁వీక్షించ	-11.5724
▁గెలుపొంద	-11.5739
▁రిజర్వ్	-11.5739
▁పరమహంస	-11.5739
▁కన్సల్ట	-11.5739
▁కుదిరింది	-11.5739
▁యాసిడ్	-11.5739
▁చిహ్న	-11.574
▁నిదర్శనం	-11.5741
▁స్థూల	-11.5742
▁ఎగిర	-11.5756
▁డెలివరీ	-11.5758
ఏమండీ	-11.5763
▁10-08-201	-11.5778
▁16-12-201	-11.5778
▁కర్నాటక	-11.5778
▁హిల్లరీ	-11.5778
▁విండీస్	-11.5778
▁తోడ్పడ	-11.5785
▁02-12-201	-11.5797
▁05-10-201	-11.5797
▁06-11-201	-11.5797
▁25-04-201	-11.5797
▁భూగర్భ	-11.5797
▁విన్పించ	-11.5799
▁04-11-201	-11.5837
▁20-04-201	-11.5837
▁21-10-201	-11.5837
▁గుర్తుతెలియని	-11.5837
▁బెంచ్	-11.5837
▁రుత్వి	-11.5837
▁ఒడ్డున	-11.5847
కోసమ	-11.5856
▁04-08-201	-11.5856
▁12-12-201	-11.5856
▁25-07-201	-11.5856
▁రిపోర్ట్	-11.5856
▁దిలీప్	-11.5856
▁మేనీటర్	-11.5857
▁15-10-201	-11.5876
▁పురోగతి	-11.5876
▁ఆశీర్వదించ	-11.5896
▁ఫెస్టివల్	-11.5896
▁అప్పారావ్	-11.5896
▁సుభాష్	-11.5896
▁పెరట్లో	-11.5896
▁ఓషధుల	-11.59
▁శైలజ	-11.59
▁27-10-201	-11.5916
▁యాక్సిడెంట్	-11.5916
▁క్రీడాకారుల	-11.5916
▁పదోన్నతుల	-11.5916
ప్రమాద	-11.5926
▁బాధ్యుల	-11.5926
▁గోపీచంద్	-11.5936
▁సందిగ్ధ	-11.5936
▁08-12-201	-11.5956
▁22-04-201	-11.5956
▁22-11-201	-11.5956
▁చినరాజప్ప	-11.5956
▁స్వల్పకాలిక	-11.5956
▁చదరపు	-11.5956
▁నిరాహార	-11.5956
▁విశ్లేషించ	-11.5976
▁03-05-201	-11.5976
▁17-10-201	-11.5976
▁20-11-201	-11.5976
▁లైబ్రరీ	-11.5976
▁ఆర్టిస్టు	-11.5976
▁విన్నవించ	-11.5987
▁07-12-201	-11.5996
▁21-11-201	-11.5996
▁విజిలెన్స్	-11.5996
▁స్పిన్నర్	-11.5996
▁ధ్యేయం	-11.5996
▁03-10-201	-11.6016
▁11-08-201	-11.6016
▁14-10-201	-11.6016
▁16-04-201	-11.6016
▁24-11-201	-11.6016
▁బిస్కెట్	-11.6016
▁సిక్సర్	-11.6016
▁విల్సన్	-11.6016
▁పసికందు	-11.6016
▁అటెండ	-11.6022
▁ప్రయోజన	-11.6032
▁వెలగపూడి	-11.6036
▁హైద్రాబాద్	-11.6036
▁గణాంకాల	-11.6036
▁తుడిచి	-11.6037
పోవటానికి	-11.6048
▁15-07-201	-11.6056
▁19-12-201	-11.6056
▁నిరసిస్తూ	-11.6056
▁కమీషన్	-11.6056
▁29-12-201	-11.6076
▁30-06-201	-11.6076
▁అలికిడి	-11.6077
▁గ్లాస్	-11.6077
ప్పట్నుంచీ	-11.6077
▁సేవలందించ	-11.6078
▁15-12-201	-11.6096
▁23-12-201	-11.6096
▁29-11-201	-11.6096
▁ఛాలెంజ్	-11.6096
▁నిర్వర్తించ	-11.6096
▁అనర్హ	-11.6098
▁విభేదాల	-11.61
▁08-11-201	-11.6116
▁కాలిఫోర్నియా	-11.6116
▁పుదీనా	-11.6117
▁మదుపు	-11.6117
▁స్టార్టప్	-11.6117
▁కౌశిక్	-11.6137
▁పరిమాణం	-11.6137
▁మెషిన్	-11.6137
▁14-04-201	-11.6157
▁అరచెంచా	-11.6157
▁యశ్వంత్	-11.6157
▁వెస్టిండీస్	-11.6157
▁టూరిజం	-11.6157
▁సాహితీ	-11.6157
▁నిఖిత	-11.6157
▁విమానయాన	-11.6157
▁సాంప్రదాయ	-11.6177
▁సీక్రెట్	-11.6177
▁07-07-201	-11.6177
▁08-10-201	-11.6177
▁28-10-201	-11.6177
▁30-04-201	-11.6177
▁భవంతి	-11.6178
▁అతిథుల	-11.6179
▁బ్రహ్మోత్సవాల	-11.6179
▁వెడతా	-11.6185
▁దీర్ఘకాలిక	-11.6198
▁16-10-201	-11.6198
▁30-12-201	-11.6198
▁షబ్బీర్	-11.6198
▁నిరుత్సాహ	-11.6198
▁ఆచరించ	-11.6198
▁వాయించ	-11.62
▁రమ్య	-11.6201
▁మారుతుంద	-11.6204
▁26-11-201	-11.6218
▁29-09-201	-11.6218
▁అత్యాధునిక	-11.6218
▁ప్రభంజన	-11.6218
▁కూర్చొ	-11.6223
▁09-09-201	-11.6239
▁17-04-201	-11.6239
▁21-12-201	-11.6239
▁భాగవతార్	-11.6239
▁08-09-201	-11.6259
▁11-12-201	-11.6259
▁నగ్నంగా	-11.6259
▁అభివర్ణించ	-11.626
▁హోటళ్ల	-11.6262
్రయోజ	-11.6272
▁03-12-201	-11.628
▁కుదుర్చుకున్న	-11.628
▁భగవాన్	-11.628
▁అచ్యుత	-11.628
▁ఇడ్లీ	-11.628
▁నిగ్రహించ	-11.6281
▁31-10-201	-11.6301
▁బీభత్సం	-11.6301
▁సపోర్ట్	-11.6301
▁నవనీత్	-11.6301
▁ములాయం	-11.6301
▁సంచరించ	-11.6302
▁20-06-201	-11.6321
▁జలవనరుల	-11.6321
▁బాక్సాఫీస్	-11.6321
▁తుపాకుల	-11.6322
▁తన్మయ	-11.6323
ెదుర	-11.6336
▁09-12-201	-11.6342
▁11-09-201	-11.6342
▁31-08-201	-11.6342
▁ఎర్రబెల్లి	-11.6342
▁పేలుళ్ల	-11.6352
▁01-09-201	-11.6363
▁21-04-201	-11.6363
▁27-09-201	-11.6363
▁శ్యామల	-11.6363
▁ఉత్తేజ	-11.6367
▁02-10-201	-11.6383
▁24-09-201	-11.6383
▁తదేకంగా	-11.6383
▁సాక్ష్యాల	-11.6385
▁శ్రేష్ఠ	-11.6404
▁07-10-201	-11.6404
▁13-10-201	-11.6404
▁సావేరి	-11.6405
విశాఖపట్నం	-11.6418
▁26-07-201	-11.6425
▁28-07-201	-11.6425
▁వూపిరి	-11.6425
▁ఆరునెలల	-11.6429
▁అన్వేషణ	-11.6446
▁హరితహారం	-11.6446
శ్రేణి	-11.6446
▁మనుగడ	-11.6446
▁స్వీకరిస్త	-11.6453
▁01-05-201	-11.6467
▁02-08-201	-11.6467
▁03-08-201	-11.6467
▁06-07-201	-11.6467
▁08-07-201	-11.6467
▁22-12-201	-11.6467
▁ఉన్మాద	-11.6467
▁కొరటాల	-11.6467
▁08-01-201	-11.6488
▁10-09-201	-11.6488
▁13-09-201	-11.6488
▁28-09-201	-11.6488
▁నల్లధనం	-11.6488
▁విపత్తు	-11.6488
▁తేజస్వి	-11.6488
://	-11.6489
▁27-07-201	-11.6509
▁ఆడిటోరియం	-11.6509
▁ఇప్పుడిప్పుడే	-11.6509
▁పాపులర్	-11.6509
▁రెట్టించ	-11.6514
▁పూడ్చ	-11.6526
▁12-01-201	-11.653
▁12-05-201	-11.653
▁16-09-201	-11.653
▁20-07-201	-11.653
▁24-10-201	-11.653
▁జవహర్	-11.653
▁కొనుక్కో	-11.653
▁సిన్హా	-11.653
▁గుచ్చుకు	-11.6534
▁13-07-201	-11.6551
▁ముఖ్యకార్యదర్శి	-11.6551
▁నాణ్యమైన	-11.6551
▁బాంబే	-11.6552
ఇవాళ	-11.6567
▁26-09-201	-11.6573
▁చక్రపాణి	-11.6573
▁పదేపదే	-11.6573
▁టెక్నికల్	-11.6573
▁దొంగిలించ	-11.6573
▁అబద్దాల	-11.6581
▁04-10-201	-11.6594
▁రూపుదిద్ద	-11.6594
▁విరాళాల	-11.6594
▁పర్యటిస్త	-11.6595
▁పలువురి	-11.6595
▁05-08-201	-11.6615
▁06-12-201	-11.6615
▁08-08-201	-11.6615
▁10-12-201	-11.6615
▁రొమాంటిక్	-11.6615
▁సోమపానము	-11.6615
▁వైవిధ్య	-11.6615
▁03-09-201	-11.6636
▁09-08-201	-11.6636
▁10-10-201	-11.6636
▁2016-17	-11.6636
▁30-05-201	-11.6636
▁దుయ్యబట్టారు	-11.6636
▁వెడల్పు	-11.6636
శ్రీమంతుడు	-11.6637
▁అయిదేళ్ళ	-11.6639
▁ముగిసి	-11.6641
▁18-10-201	-11.6658
▁ప్రోత్సాహం	-11.6658
▁రెండడుగులు	-11.6658
▁స్పీడు	-11.6658
▁పిలుచు	-11.6671
▁పర్యవేక్షించ	-11.6679
▁06-08-201	-11.6679
▁09-05-201	-11.6679
▁19-08-201	-11.6679
▁19-09-201	-11.6679
▁22-07-201	-11.6679
▁22-09-201	-11.6679
▁29-07-201	-11.6679
▁అరేబియా	-11.6679
▁దాఖలైన	-11.6679
▁నిర్వాసితుల	-11.6679
▁చూడ్డానికి	-11.6679
▁మున్నగు	-11.6679
▁09-01-201	-11.6701
▁బిగ్గరగా	-11.6701
▁సద్వినియోగం	-11.6701
▁బ్యారేజీ	-11.6701
▁డైలాగు	-11.6701
సుబ్రమణ్య	-11.6722
▁16-07-201	-11.6722
▁వెతుక్కుంటూ	-11.6722
▁సబ్జెక్టు	-11.6722
▁19-05-201	-11.6744
▁23-04-201	-11.6744
▁కిరోసిన్	-11.6744
▁వాట్సప్	-11.6744
▁02-07-201	-11.6765
▁20-05-201	-11.6765
▁24-06-201	-11.6765
▁జస్వంతరావు	-11.6765
▁14-12-201	-11.6787
▁20-12-201	-11.6787
▁24-12-201	-11.6787
▁మహీంద్రా	-11.6787
▁బ్రిటిష్	-11.6787
ప్రొద్దున్న	-11.6795
▁శాసించ	-11.6796
▁05-12-201	-11.6809
▁11-11-201	-11.6809
▁18-05-201	-11.6809
▁18-08-201	-11.6809
▁23-06-201	-11.6809
▁27-12-201	-11.6809
▁29-06-201	-11.6809
▁ఆయుర్వేద	-11.6809
▁కమ్యూనిస్టు	-11.6809
▁వెండితెర	-11.6809
▁కడిగే	-11.6828
▁15-09-201	-11.683
▁24-08-201	-11.683
▁28-12-201	-11.683
▁పశ్చాత్తాప	-11.683
▁సామూహిక	-11.683
▁విచక్షణ	-11.683
▁గడగడ	-11.683
▁క్యారెట్	-11.6831
లక్ష్మమ్మ	-11.6834
స్థిమితం	-11.6835
▁11-07-201	-11.6852
▁జనార్ధన్	-11.6852
▁వెరైటీ	-11.6852
▁నెత్తురు	-11.6852
▁నిమ్మకాయ	-11.6852
▁కూచుని	-11.6852
▁పెద్దనోట్ల	-11.6857
▁24-04-201	-11.6874
▁ఆడియెన్స్	-11.6874
▁అపాయింట్	-11.6874
▁నివ్వెర	-11.6896
▁01-11-201	-11.6896
▁29-08-201	-11.6896
▁31-12-201	-11.6896
▁సత్కరించ	-11.6896
▁17-07-201	-11.6918
▁21-07-201	-11.6918
▁30-10-201	-11.6918
▁డిజైనర్	-11.6918
▁సురేందర్	-11.6918
▁నాగరికత	-11.6918
▁వారసుడ	-11.6919
▁అంతకుమించి	-11.6919
▁ప్రళయ	-11.6921
▁10-01-201	-11.694
▁పారిజాత	-11.694
▁తీక్షణంగా	-11.694
▁ముస్తాబ	-11.6948
▁కట్టుదిట్ట	-11.6962
▁ఎగుమతి	-11.6962
▁వ్రాశా	-11.6964
న్నిటినీ	-11.6972
▁21-06-201	-11.6984
▁25-08-201	-11.6984
▁బ్యాక్టీరియా	-11.6984
▁పరవశ	-11.6985
▁నాశనమ	-11.6991
శూన్య	-11.6995
▁09-07-201	-11.7006
▁11-05-201	-11.7006
▁17-06-201	-11.7006
▁ఎగ్జిబిషన్	-11.7006
▁క్రియేషన్స్	-11.7006
▁తోసిపుచ్చ	-11.7006
▁దౌర్జన్య	-11.7006
▁నిమురుతూ	-11.7006
▁గణనీయంగా	-11.7006
▁ఫెడరేషన్	-11.7006
అధ్వర్యు	-11.7007
▁ఆంధ్రప్రదేశ	-11.701
▁నేపథ్య	-11.7022
ిద్దర్నీ	-11.7022
▁భావోద్వేగ	-11.7028
▁20-09-201	-11.7028
▁26-12-201	-11.7028
▁27-06-201	-11.7028
▁రాస్తారోకో	-11.7028
▁సుదర్శనం	-11.7028
▁అయిపోయింద	-11.7035
▁చేజార	-11.7044
▁దోహదపడ	-11.7046
▁05-07-201	-11.705
▁27-11-201	-11.705
▁అంతస్థు	-11.7052
▁దొంగతనాల	-11.7056
▁13-11-201	-11.7073
▁18-07-201	-11.7073
▁అర్జంటుగా	-11.7073
▁నీటిమట్టం	-11.7073
▁జింబాబ్వే	-11.7073
▁క్లియర్	-11.7073
▁పటిష్ఠ	-11.7073
▁అన్నదమ్ముల	-11.7073
▁భాస్కర	-11.7081
▁01-07-201	-11.7095
▁07-09-201	-11.7095
▁10-07-201	-11.7095
▁12-08-201	-11.7095
▁12-09-201	-11.7095
▁18-12-201	-11.7095
▁20-08-201	-11.7095
▁పాశ్చాత్య	-11.7095
▁లీటర్ల	-11.7102
▁13-01-201	-11.7117
▁ఎన్టీయార్	-11.7117
▁నెటిజన్లు	-11.7117
▁పబ్లిసిటీ	-11.7117
▁ఆదివాసీ	-11.7117
▁రిజర్వు	-11.7117
▁క్యాంపస్	-11.7117
▁సురభి	-11.7117
▁మంచిర్యాల	-11.7118
▁నిద్రలేచ	-11.7125
▁01-08-201	-11.714
▁04-09-201	-11.714
▁అగ్నిమాపక	-11.714
▁ఇంచుమించు	-11.714
▁ఆవిర్భావ	-11.714
▁09-06-201	-11.7162
▁28-11-201	-11.7162
▁ఎగతాళి	-11.7162
▁విస్మరించ	-11.7162
▁స్వగ్రామ	-11.7162
▁విఫలమయ్య	-11.7163
▁యూజర్ల	-11.7176
▁14-09-201	-11.7185
▁18-06-201	-11.7185
▁అల్లంవెల్లుల్లి	-11.7185
▁వెదజల్ల	-11.7185
▁ధ్యాస	-11.7185
▁ముంబయి	-11.7185
▁ఏమనుకుంట	-11.7185
▁సరిదిద్ద	-11.7188
▁చేసుకొంట	-11.719
▁13-05-201	-11.7207
▁30-07-201	-11.7207
▁మధ్యతరగతి	-11.7207
▁శుక్ల	-11.7208
ఎలక్ట్ర	-11.7217
▁నిదర్శనమ	-11.7218
▁క్యాపిటల్	-11.723
▁డిఫెన్స్	-11.723
▁దిష్టిబొమ్మ	-11.723
▁రిపోర్టర్	-11.723
▁అదరగొట్ట	-11.723
▁వ్యాజ్యం	-11.723
▁క్విజ్	-11.723
పద్దెనిమిద	-11.7253
X	-12.2278
ఞ	-12.3111
<	-14.7335
